fd
ff
b0
d8
05
b5
df
89
50
27
c9
b0
e2
24
ca
2f
0e
90
e9
42
eb
30
16
f4
f6
34
ea
ef
f6
1b
12
f2
f0
fb
19
22
d5
0d
e7
04
dc
06
15
1c
14
0d
e7
f3
04
e5
23
0d
fd
ef
fe
e3
18
e4
22
3c
f1
1f
de
fc
fb
f3
cc
e4
f5
0e
14
01
3f
de
00
e5
f8
ed
1b
f9
17
21
16
f0
de
ef
0c
27
0c
0e
1a
f8
2b
e0
fd
1e
fa
34
17
04
07
fe
0d
13
f0
da
01
d8
ea
f0
f3
16
f4
e8
18
ff
dd
ed
eb
2e
13
ef
e5
fa
d0
12
2d
f5
2d
fc
e5
e2
f6
f1
f8
10
03
10
db
e6
18
2d
d1
12
0f
e5
f8
12
ef
3d
ef
13
fd
e7
29
58
29
e5
1d
1e
16
d9
fc
1a
e0
04
fc
fb
e8
08
e1
fa
0c
fa
fa
10
3a
04
f8
e1
2d
1a
02
fb
d8
41
0b
1f
01
ea
1b
f5
0a
06
12
0e
0b
ec
f2
f0
f3
19
1c
0f
0c
06
14
07
14
03
48
11
0e
e1
14
0a
ec
fd
f7
e9
06
f5
02
0b
ef
f0
d9
55
fe
05
2a
f6
f4
0b
00
f8
10
f7
08
1d
ca
e1
0c
01
fc
0e
c2
29
0a
d3
05
49
1f
07
40
16
1c
05
2b
12
0c
f1
8d
24
ee
cf
fb
f0
f6
28
e2
f2
14
fb
fc
58
29
05
16
ef
fa
04
fe
f9
22
00
fc
f4
0a
06
f4
fe
0f
03
20
0a
ea
17
eb
0a
d7
14
19
18
01
f3
15
ee
12
c4
fe
ee
1b
26
f9
e9
fd
e2
0d
e1
ef
0a
e2
e4
dd
ee
d2
16
fc
fd
ff
08
dd
1e
23
0f
fd
05
fc
f7
fe
f1
0f
0a
f1
0e
de
46
f2
0b
31
0b
dc
1b
d7
f4
01
13
1c
fc
04
01
10
27
15
f1
41
27
04
09
24
dc
fe
29
fe
f9
e1
fe
0e
0c
f9
37
29
46
f7
39
f1
fb
1a
fe
21
ff
ef
f1
11
15
d3
23
e1
1b
e2
1c
12
1c
1f
01
eb
0a
2c
de
eb
fc
e1
10
22
17
0e
f4
02
ec
07
12
d8
0d
ef
fc
ed
db
03
42
df
23
f7
0e
1e
05
23
00
09
0a
fc
e6
09
fa
0e
d7
f4
f8
02
e4
48
e9
10
f1
db
2b
0e
d6
04
f4
d7
df
db
23
e6
fc
2c
fc
21
30
de
00
e0
d7
21
e5
e7
09
ff
07
e4
1a
0b
fb
f7
06
f8
15
09
cb
e6
ce
e6
f1
e9
0a
0d
07
28
07
ea
ea
e0
30
de
07
02
e9
04
05
14
07
f9
13
f4
dd
cd
11
06
14
e6
16
e2
fa
f3
15
3d
ed
00
e5
24
1f
1f
e5
19
18
eb
0f
ce
d0
e8
ff
28
08
1e
f3
d9
f4
f2
e7
19
35
d5
fe
23
04
1b
c1
c3
14
e2
11
4c
30
03
01
e6
fd
ff
db
45
fd
f5
b5
49
f1
fd
e8
0b
e1
f8
15
e8
fd
1b
26
3b
17
07
dc
04
08
f5
00
fa
f8
03
26
2a
f8
0f
07
08
ea
29
22
10
02
e6
05
15
e7
d5
13
03
ff
e9
ef
dd
f9
2c
24
61
e6
d1
15
1a
20
07
e9
f2
d8
f5
f3
35
e6
16
2e
02
e6
fe
1f
db
0e
f4
16
ff
17
f5
d0
f6
f3
03
10
e3
1a
1a
ff
f1
4a
16
ff
16
f7
fd
f9
fc
fb
27
1a
02
d7
f7
e3
05
19
14
f2
ef
fc
1d
f9
39
0f
20
11
f5
c6
fc
f9
d8
ed
15
0e
00
f1
04
00
e9
fa
04
08
fd
cd
f9
ed
1b
06
04
16
26
df
fa
fe
0c
cb
f5
ef
f0
1c
04
15
fa
07
f9
00
11
d3
f4
f1
26
c0
ea
02
02
10
07
f7
09
e7
e9
ec
00
2b
f3
d0
d8
0d
06
02
16
ec
c9
3b
f2
fb
06
fb
02
0f
04
14
31
16
2d
f9
30
ff
30
ee
2b
01
da
d1
24
d1
20
16
21
f5
e0
0b
e9
26
f7
0a
0b
d9
07
14
f9
05
09
f9
f4
f6
dd
fc
06
d1
fb
13
17
1e
31
de
05
fc
05
e7
e0
20
0c
f3
0b
f7
02
d2
fb
0e
f1
f4
04
f5
ca
f8
0a
00
b5
f5
03
b1
22
f1
ff
1b
0b
0c
f5
06
ed
fc
15
06
f6
c3
ec
fc
0c
14
20
0e
eb
0b
df
fd
0f
0b
35
fb
fb
e9
33
f1
ef
ed
cb
0f
03
ed
db
15
04
28
18
f8
2a
06
e7
ce
0a
14
df
ed
23
09
f2
f8
fa
12
35
3b
16
df
ff
fc
ad
06
f5
00
24
55
02
ee
f0
e6
26
27
fd
e4
fa
e0
33
f2
1e
e8
15
0c
e6
2f
f1
07
08
de
fe
11
d4
1c
f4
f0
d8
2b
fa
1a
f4
ec
ed
32
16
09
29
dc
d2
f1
fb
ff
19
ed
e0
f3
fc
0a
32
0e
16
34
04
c0
2d
ee
d4
eb
0f
f1
0c
e0
f9
42
ee
0b
1e
de
ef
0f
3c
0f
f5
2f
e4
15
14
ff
dc
fb
fb
07
09
f7
11
da
f4
19
10
ee
0f
ce
cf
1e
ee
27
18
1a
f8
0f
09
fe
0a
1e
0d
0d
f8
f3
11
f3
28
ed
fb
01
f4
d9
e3
1b
ee
e6
e6
08
f5
e5
09
04
3a
ee
03
c0
2a
31
03
df
f9
0e
fb
08
cf
d5
08
df
2c
f4
0f
f9
cf
f8
ca
e3
13
26
27
cd
dd
04
14
db
f2
0b
14
fe
0f
f2
17
0a
e1
d6
1a
27
16
ea
21
e5
f1
0a
02
f6
ea
25
ed
fe
e1
fb
03
e7
ff
0d
cb
01
fc
0a
bd
18
09
28
0d
fc
e4
f9
fc
ef
fd
07
fd
18
d2
fd
12
ef
29
36
1c
cf
22
11
27
eb
1a
f2
13
29
ea
0f
e0
37
e1
e1
f1
14
26
f4
e8
02
28
38
ee
23
d5
13
05
1b
0b
1e
fb
07
d0
ed
fa
fe
f8
f5
ed
19
f0
ba
f8
fa
3c
e0
fa
2a
21
fc
01
04
fa
e0
ff
e2
13
12
f4
e7
f6
15
dc
f1
f5
0b
01
14
0a
0a
f9
f2
0a
16
13
17
e7
20
bb
f9
e0
fa
1a
f1
d9
09
0c
0d
22
12
20
fd
ff
c8
cf
0b
fa
20
17
06
d0
f3
18
ea
e3
fd
fc
ff
f0
ce
f3
e1
14
23
dc
f7
f1
7f
ff
d2
26
f4
da
1f
f2
e4
04
09
2b
42
1a
fa
f1
20
3e
e5
da
0e
10
e7
2c
15
28
f5
f2
de
1c
15
fc
fb
0e
15
e9
07
24
19
19
06
16
e0
ff
28
fc
22
ec
f7
f0
f8
eb
17
0b
fc
f2
1e
1d
31
0d
d5
f7
e9
fb
31
ef
f7
f1
09
f4
02
1a
16
ea
ea
1b
25
fc
0c
f4
24
e1
f8
c7
0c
13
1c
f0
04
02
06
e1
c3
f3
27
3f
d8
09
27
0d
e4
06
25
d9
e8
0d
f1
1a
20
0a
f1
e4
22
32
0c
36
fc
d4
0f
14
f9
f3
ee
10
2f
15
f3
0b
f9
2f
d9
00
0a
04
e8
30
0d
0a
00
ea
32
0a
18
ef
fe
03
f9
c9
16
14
f7
ec
33
2d
14
04
cc
e6
05
ed
0e
fb
19
00
dd
19
00
f9
f9
0e
c8
1c
f6
1e
0a
f5
03
1e
f6
02
ed
eb
f0
09
0e
0e
f1
fd
ef
fd
dc
fc
d0
1a
ff
f3
f3
1e
2f
36
2c
1a
3d
19
27
e2
fa
0c
f7
fa
db
d5
1c
f6
06
3d
f6
f1
0d
d5
13
01
df
23
fc
e7
ef
38
11
e0
01
25
16
f8
d6
f7
d9
0c
df
44
fa
fb
33
fe
f8
fb
14
e7
f6
f5
28
1b
1b
3f
ec
2e
f7
07
04
18
0b
11
ef
16
1e
01
0e
0c
04
e7
cf
2a
fe
f3
f8
03
18
f1
09
fe
0e
ee
0a
f7
e9
fc
d3
f9
eb
e8
2a
12
19
0a
fd
1c
ea
ff
e2
eb
28
bc
13
f4
08
f7
f9
f6
f8
f1
f2
f6
f4
06
fc
ef
f4
f2
ea
cf
e4
ff
ff
04
16
3c
e6
f9
f6
fe
0a
f8
ff
09
3b
13
00
0c
0e
13
0b
0a
07
1a
2a
1d
14
17
ea
10
da
25
13
08
20
12
29
07
22
ee
f5
05
ed
96
11
05
eb
cb
3f
2b
1f
20
f1
fa
16
e9
eb
f6
fd
fb
cf
f3
f7
31
d3
eb
21
31
f9
f9
0e
fd
d9
fa
f1
24
1d
f4
fc
00
f4
05
f5
fb
10
31
f5
f4
00
30
14
00
47
f5
1e
f6
e3
e7
e7
0d
f4
0a
0d
e5
0c
f5
10
e7
f6
0e
e2
17
0f
c0
01
f1
f8
9f
0b
10
2a
2d
09
f7
f0
f1
f0
21
cb
f2
05
07
0a
fc
16
d6
ee
0c
02
03
dd
4e
ec
ee
e6
d9
06
14
05
1a
fc
16
0d
df
d9
e9
24
de
13
35
dc
12
2f
cc
10
e8
d2
23
df
e4
00
ff
13
fe
e4
f3
f8
ed
17
f4
fb
0c
20
f3
33
30
ec
1a
d5
de
01
fa
e7
ff
1d
00
e5
f9
15
00
03
23
ff
05
17
27
fc
f8
fc
29
0d
0a
4c
dd
16
ed
e4
f4
fb
20
f8
00
18
fb
21
1c
02
f2
0b
17
f6
1f
25
fa
e9
ff
fd
17
e4
e8
d9
19
05
e8
07
04
fc
eb
0c
18
fe
26
26
15
19
17
f5
cf
37
0e
fc
f5
f8
ed
f8
0e
f1
0a
ed
ff
f6
e0
e4
f1
0b
fe
f7
29
f8
2c
fa
ef
dd
02
02
fe
12
f3
e5
fa
18
16
25
21
f4
00
09
ea
f8
0e
e9
fc
3b
f6
f3
03
14
00
0e
08
0a
17
30
1c
ee
0b
09
13
f9
f5
fc
e9
0a
fd
04
07
07
30
10
c4
e3
01
23
f1
dc
12
f6
18
f9
0c
0c
f7
dd
24
fa
f9
f9
fa
0c
f9
19
d8
db
0d
ec
30
f0
35
e6
eb
f3
d5
00
26
0c
1e
f1
03
ff
f3
0e
24
10
01
19
ff
0d
e6
e1
f7
1c
04
f4
23
eb
06
df
07
09
11
10
df
f3
ff
29
17
06
0a
22
e5
d2
dd
e2
15
1d
0f
00
e1
f3
0e
00
02
ee
18
df
1e
15
05
e3
19
18
ee
1c
ff
e9
12
19
e1
14
04
15
10
50
1c
0a
0b
00
1d
07
f0
1c
2d
f8
ef
f3
f9
df
05
11
09
03
02
0d
10
00
e8
e2
1c
ed
d7
e6
ee
03
fc
f4
02
f8
18
06
fb
12
f1
d7
d2
10
04
0e
dc
19
df
f7
e1
14
3a
e3
01
11
0b
f6
26
f7
1a
0d
36
ed
ed
09
1a
45
fc
61
dc
1d
f8
cb
15
e3
14
ee
67
e9
47
e3
ef
0d
02
a3
08
23
15
3c
fe
15
d0
24
01
05
cb
3f
19
ef
25
22
ff
1d
12
08
fe
06
14
c8
e3
ea
d0
e8
0f
14
03
ee
11
21
00
37
fc
00
ed
dc
0d
09
fc
25
24
05
18
f0
f0
fe
e1
1f
f6
11
16
fc
0b
0d
e6
f9
28
e0
db
eb
01
eb
d9
e5
0a
18
16
03
00
26
1b
06
dd
fe
11
2e
0a
f0
06
f5
1c
c5
17
fc
e6
fb
03
ea
f6
17
f1
08
1c
0d
25
12
0e
c7
03
fd
fa
f2
1a
f6
f5
11
20
1a
ee
f9
10
1d
07
f5
05
fd
03
ed
11
fa
20
2b
02
e3
01
17
21
21
03
26
06
01
ec
1b
10
15
03
fa
08
1a
18
0b
ff
ee
e4
e0
dc
0f
03
f7
92
e2
23
07
e2
f9
02
f8
f0
04
21
fb
1e
13
f4
2a
24
f0
fd
f3
39
ff
db
f5
e6
fb
04
2f
36
c2
26
ef
cc
f4
06
0f
18
fb
f5
33
31
c7
e9
04
22
16
05
21
f8
eb
1f
cc
f9
23
14
cd
e5
00
f6
eb
00
e1
11
0e
0f
32
12
0a
0d
f7
f7
02
e7
03
07
1c
08
cd
de
00
0a
f5
03
03
ed
1f
0b
c0
ed
e9
ef
06
f5
11
1c
00
30
f5
04
ec
d7
1d
f0
f8
1c
07
f3
da
e4
07
f5
01
2a
f0
07
02
df
0b
05
e9
31
06
ec
de
1a
03
3f
de
f3
da
31
18
e7
1f
f7
dc
1d
f9
07
29
e6
09
f6
dd
da
34
e7
04
0d
fc
0b
cc
1c
43
33
fd
10
06
f1
f2
d6
ca
ec
e7
2a
f1
dc
ef
e1
e5
03
eb
4b
1a
e3
e1
19
e2
e7
f8
10
10
db
1e
e0
f7
e3
0c
0c
d1
63
f5
ea
ff
cc
01
fc
0c
e9
0b
fa
f1
10
13
0f
28
01
c4
e1
fa
d6
fc
2c
07
f9
f9
45
e1
d8
18
0c
e6
db
07
2b
fd
e0
f5
fc
cc
f1
f7
03
05
01
f3
fa
0e
e5
ea
c7
ea
0b
12
16
fd
f8
01
1b
14
0c
f9
fa
2e
01
e3
ce
fb
fa
fc
e5
1d
12
fa
15
0e
16
fe
d7
fc
15
ef
29
ff
0c
02
f9
21
0c
1a
f7
e1
05
f6
c0
11
0a
f2
e1
2e
2f
1b
00
f1
e2
16
38
1d
d4
f8
fe
e1
de
0a
e5
fe
f3
1f
04
1a
f0
d3
ff
fd
fb
f7
19
e7
df
08
16
19
04
e4
ed
f6
ff
da
13
02
1a
1a
ef
dd
ff
04
ef
fc
f0
27
0b
06
db
e6
f9
e9
f5
ff
e0
02
08
ea
03
1f
ed
13
31
ff
ea
1e
14
e1
04
0d
f8
fd
04
04
e5
e3
e5
f0
ff
c2
fb
fc
28
d7
fd
1a
0f
00
02
0d
ef
f0
f5
ed
0d
1b
24
01
e2
f2
db
19
24
09
28
fb
f7
b4
e0
f6
ec
25
0f
12
d0
f2
11
28
db
35
f9
f7
ff
e2
19
e7
ec
f6
0d
0a
df
ce
d5
1e
e5
16
f8
39
da
16
f1
08
fa
f8
ee
43
eb
ed
1f
1a
47
f6
d6
fd
14
22
d3
27
cf
15
fb
11
0b
04
1e
04
f5
03
f6
e6
db
e8
10
0b
f9
f6
17
f8
26
1f
13
20
38
e5
f8
14
f7
e2
15
fe
1e
f3
01
0f
e8
2b
20
e4
f7
fc
f3
05
fb
fb
21
fe
07
cc
1d
18
0f
0e
10
e5
fa
e4
16
1c
29
17
14
19
17
48
cd
f0
1a
11
ef
03
1c
ed
e8
3d
fc
d3
06
fc
1f
04
0f
15
2c
12
02
09
08
e6
ef
e5
04
19
f1
f6
0b
1d
ec
f1
e7
09
f6
11
08
ee
f1
00
f5
17
0d
14
1a
fd
15
12
1f
f1
09
f5
09
f6
f7
17
25
31
08
20
0d
24
15
cb
fc
27
f7
ef
ce
fb
2b
e0
e5
e6
f1
ec
09
fe
ac
12
00
f7
10
f3
25
ee
fa
f0
09
fa
08
f5
25
19
f3
30
0f
00
11
08
1c
f4
5b
fa
e8
f0
d0
1c
fd
f0
01
f3
26
01
e5
f9
06
14
fb
38
07
e7
07
13
00
25
02
0a
41
40
13
26
2b
11
02
e3
0d
f7
ee
f8
03
03
05
0c
08
f2
15
26
07
f7
f8
0b
47
2d
f4
09
23
09
d0
1e
db
11
d9
2e
0e
06
e1
39
e3
e5
15
f9
12
0d
f1
ee
1a
04
ff
0e
13
16
12
fa
25
d8
09
f5
ef
07
3b
df
00
0a
e5
13
0c
e0
07
12
ce
12
df
0b
fc
e4
01
d9
f4
11
ee
fb
ed
03
df
f2
03
0a
8b
0c
03
be
e7
fc
fa
22
05
09
f0
f6
e1
ef
f6
be
f7
fe
2d
0f
fa
19
14
1b
0d
2e
ee
e7
61
0c
01
eb
ed
11
f7
d7
28
c8
df
0a
ba
1e
4b
11
02
fc
f1
d1
25
23
cf
01
c9
f6
e2
ba
fb
5a
bb
48
da
47
d2
d6
f8
19
30
e7
f1
ef
3b
44
fb
48
b5
fd
0e
2d
20
21
1d
30
c6
d8
f1
df
0a
ee
f3
f8
16
07
e4
12
fd
02
ec
05
02
db
4f
fa
eb
02
db
f8
f6
04
fb
0b
08
d8
f8
fc
01
fe
fc
05
fe
00
01
16
e1
eb
12
f7
de
f1
e2
0f
fd
dc
14
31
e5
04
c5
d6
fb
09
17
e9
1f
8a
ef
0e
e7
27
34
e6
de
37
22
00
2d
04
02
ec
09
10
07
fc
0c
04
ca
0e
0e
f2
a3
f7
18
bb
1e
dc
fb
14
16
22
07
0e
d6
f5
f6
e8
0a
03
18
36
fc
f8
e2
05
02
e5
1a
09
f3
0d
fe
02
18
01
f7
06
4b
f0
39
e9
fb
ee
07
dd
18
04
2a
1f
f9
00
26
21
f8
f7
e8
1f
fb
1c
1b
cc
bc
18
d4
13
e8
ec
ed
1c
de
1e
f5
e8
14
01
f3
ef
ed
02
d4
e4
f5
1b
e9
0f
58
de
ff
ef
44
08
f1
1e
d9
f5
18
f4
20
3a
19
f7
f7
e9
22
46
f2
f5
0c
f9
03
fb
ea
2d
fc
fb
fc
04
f4
fc
1e
0c
cc
ee
14
08
d0
07
f4
2c
fb
04
ea
01
ed
0c
0e
e0
05
00
09
18
25
0e
cf
f0
46
16
04
29
07
19
e8
d8
ce
e0
1a
e9
0c
f7
28
08
16
21
f7
f6
31
0e
f9
1d
e5
3e
fd
f1
02
b6
14
f8
0a
04
07
f1
0b
0f
f2
fe
0e
ea
15
f9
fc
11
f3
d7
da
0e
ea
00
f6
06
e2
ff
ed
15
2e
dd
f6
bc
31
34
01
db
d6
fb
17
e3
d9
ce
1e
f1
21
dd
f8
02
ec
f7
f6
09
32
22
27
1f
16
2c
f8
e3
13
ed
cf
f2
b6
d9
fc
3c
f8
04
01
0a
ea
12
fc
e7
c7
e8
07
0f
09
21
20
e6
03
28
2f
05
20
19
f8
01
fd
ea
12
e1
e0
da
25
d8
e3
ec
e1
f7
ff
07
fd
f8
03
03
1d
10
24
fe
01
d7
01
0e
fb
1d
04
0b
e7
33
35
1e
1a
f8
0c
e2
d3
0a
01
35
e3
0a
02
f4
f8
13
f0
1c
df
c5
f1
ce
fc
eb
dc
0e
