f2
e4
21
f7
fe
f2
17
57
05
f7
d9
0e
10
df
cc
1a
fb
f2
e7
46
36
22
ff
e5
ec
0a
fb
f7
fd
00
04
fa
f9
e7
07
f6
e8
08
f8
0f
01
0f
0c
f3
ed
ff
03
1f
1b
12
f6
26
fb
0e
16
1d
f3
d8
ff
09
0b
12
06
f4
18
08
03
08
16
da
e9
0d
ec
04
08
e2
f2
ec
da
2d
eb
fb
d6
41
ec
1e
15
0a
f5
2b
fe
f6
15
03
0b
1d
f0
fb
fc
02
15
f1
fa
f0
0a
ef
f1
ef
2d
05
fc
31
12
0d
f5
e0
20
03
0c
02
f5
f6
ea
15
08
0a
f4
ea
fc
e6
06
10
07
f0
07
12
15
f3
09
f5
1a
18
f8
04
f0
1c
da
11
0b
06
e0
e3
0e
e4
fd
07
0f
fa
e5
34
d1
29
12
fd
22
06
15
e1
f9
10
eb
0d
0b
ff
f2
01
38
f3
0e
19
4b
0e
f8
5f
f8
1a
03
f7
f7
fc
00
fb
01
ee
de
f4
0c
fb
35
da
11
12
fd
18
17
e4
13
e1
df
00
e2
fa
02
26
fa
dc
06
11
d3
19
16
0a
ea
2f
f9
f5
f2
f6
12
09
e6
e1
10
ed
05
fd
03
02
09
10
35
ff
ff
e8
d4
1a
ff
f7
08
21
fc
da
fa
0d
15
17
02
15
ea
10
22
f4
fd
06
23
ed
14
e8
1d
0b
02
0d
11
ec
f4
1d
03
ef
03
03
03
20
ba
44
13
2f
10
df
06
f4
06
fd
0f
04
0e
08
f5
0b
01
1d
27
d4
15
f5
f6
f5
f7
17
0d
fe
f9
e6
e6
16
1d
05
f6
e4
f2
f8
0c
e0
0e
00
fa
03
e7
f2
f4
fe
b7
f0
fd
1a
03
f9
d8
10
f8
1e
e4
e2
09
f6
03
24
13
f9
03
e3
f6
eb
16
28
23
e4
2b
e1
0a
09
fc
fa
03
10
28
e0
0b
29
e7
d0
1f
df
ea
23
0a
06
17
fc
14
13
10
d7
0b
ee
c5
d7
f7
08
14
15
39
f0
1e
de
f7
39
ec
1d
f1
fe
0c
22
fc
12
f1
f2
dd
16
05
17
fa
00
d8
0e
fd
22
40
0f
20
1b
dc
1c
07
ec
bc
fc
06
38
ed
f1
dd
f2
10
e1
11
ef
ed
f5
10
ff
e2
fd
f6
ff
ce
0c
04
c8
20
e3
f4
06
fe
02
f0
07
24
fb
ee
0b
f5
f7
ed
f7
f1
37
0e
27
11
1f
f0
f2
ff
0e
ba
16
2c
fd
28
04
fa
ec
f8
01
d8
17
0d
09
e5
00
fb
15
1a
23
06
01
e9
bc
ed
fd
0e
d6
ea
f7
e9
28
f1
f8
0a
02
e1
fb
e0
0f
0e
00
fa
f1
fa
0a
19
07
ff
0a
f4
28
fa
f3
03
fd
23
e0
fc
e7
1b
be
19
fe
17
12
eb
e7
1c
02
02
47
ef
08
19
09
0d
f8
ce
f3
e8
0a
df
cf
05
fa
03
0e
32
f4
ed
27
e6
00
07
12
15
db
36
e3
12
0c
1e
f0
e9
0e
fc
0e
d8
dd
1f
be
03
17
de
08
f6
0a
b5
ff
27
0d
50
08
e4
f9
fd
03
06
03
f3
0f
0d
00
2d
02
f9
05
08
12
08
e4
f8
eb
09
16
0d
ef
f0
09
ec
09
04
ef
fe
fd
fd
f8
f5
ea
02
f4
e7
10
f1
15
08
13
11
ee
f0
03
fc
24
ea
e8
e8
19
f5
03
f6
f3
d2
fe
0b
0c
c4
fe
01
00
1c
06
f5
12
0b
1a
f9
ef
2e
fc
18
cf
e4
e2
e3
f1
f8
19
0f
e5
fc
0a
da
0c
ed
19
d8
03
f9
0e
13
eb
fd
fc
24
0d
ef
de
09
e2
de
da
15
d1
35
26
f2
f0
ec
1c
0c
34
e9
38
07
0f
f9
e5
18
03
0d
2e
0a
fd
f7
1b
25
df
e8
1c
f6
ff
e3
30
f3
de
f7
19
07
fb
2d
10
3b
13
cf
e1
24
02
f7
15
0c
1e
f7
06
f5
17
fc
f5
20
dd
11
f8
fd
eb
00
0c
08
fc
fe
05
0d
f9
04
f3
fb
cb
f4
fd
e2
ff
02
f9
0c
f7
f5
00
fe
fa
10
d8
0a
e1
ed
02
0d
f4
f0
dc
df
f6
ca
1d
ec
de
fc
fb
0b
e5
1e
13
0e
fc
1c
f3
ea
0a
11
f7
e7
50
f6
ea
ff
ed
09
18
de
02
08
ef
f0
1b
09
11
f4
ed
1d
1d
f5
06
d3
0d
02
c1
f2
09
24
ac
f4
3a
26
f6
07
12
d1
e6
11
f9
05
03
13
16
0c
da
ea
e8
bb
2e
f3
ea
c3
2e
df
26
f9
07
08
2b
0c
e9
22
07
0a
30
12
02
d5
f8
15
b9
21
e7
ff
21
ee
29
ff
22
0e
fc
e8
04
bf
1f
17
1a
fe
12
ff
06
fe
12
00
0b
22
44
ed
d9
0f
20
fa
25
3c
ec
00
11
f7
fa
32
08
06
fa
ef
ee
fa
c5
0e
23
fa
f5
f4
be
26
eb
f7
17
f7
01
fa
0a
db
20
fc
e6
1e
1c
f9
fb
e2
fa
27
2b
db
29
f9
f7
e6
f0
1b
e8
06
de
0d
13
e2
1e
03
0a
fd
03
0b
bd
fd
1c
f7
ea
13
04
05
ff
f3
f4
0a
ea
f9
f9
11
10
e2
f8
c8
da
01
15
de
fc
ee
f4
f7
fa
e3
e9
f2
30
f2
ae
00
fe
dc
0a
fe
24
d4
11
1f
17
09
f7
d2
fa
03
11
f5
ee
0a
fd
23
fa
06
f1
02
2a
de
d4
ed
2d
05
20
e0
2c
19
1c
d1
00
e4
08
fe
fa
0e
10
30
ff
ef
13
b0
25
e2
1d
0a
10
db
df
e3
26
11
f6
08
0d
f7
0d
33
fe
d8
20
e8
0f
e3
e9
fc
20
0c
ed
ff
21
f0
15
05
18
f9
e1
c0
dc
27
d5
f6
fe
31
23
ec
13
16
dc
fe
0b
02
1d
db
13
cc
22
27
08
ed
1f
1a
02
0b
fd
00
e3
04
1b
16
26
27
dd
f5
fb
f1
08
e5
fd
f0
ef
03
53
21
19
00
f1
03
f9
f5
f9
07
05
02
11
02
07
13
fe
01
fa
36
01
f4
fd
d4
f3
f7
fc
18
fe
07
d9
00
04
f8
fd
50
f3
e0
03
38
2f
eb
04
fd
1d
15
e2
04
ce
e9
dc
f1
ec
05
0a
f7
f8
02
e9
f3
e5
e7
0a
ea
52
e0
1d
07
1c
19
07
e1
40
18
03
0b
08
08
02
11
0d
0c
e0
1c
eb
09
07
0d
c5
19
e4
26
37
fc
10
12
04
10
ed
df
38
e5
02
17
14
e3
f8
03
03
ff
f8
0a
ed
02
f1
fc
10
17
0f
32
14
00
f4
03
df
0b
ca
df
fc
03
c3
f1
49
02
03
0c
fd
e6
04
cf
1d
99
0e
17
2a
16
dd
17
1f
b3
f1
e6
a2
17
0e
1b
d9
01
cd
ff
fd
0c
08
09
c9
fb
24
0f
15
05
00
07
e1
fc
0a
f0
f5
f8
fa
ed
fd
05
0a
d0
f6
ff
dc
1d
f9
04
0d
fc
0b
ec
0b
fe
fa
e0
17
bd
29
0e
04
1f
cb
e6
21
1f
f0
15
f9
20
0f
0b
f4
fd
fb
c9
ed
28
ee
ff
e8
28
c1
d5
e5
09
27
29
ce
e7
2a
d3
10
04
f5
ef
21
03
ec
26
e3
1e
eb
17
d8
e8
08
f1
e9
16
ec
f0
0c
d4
07
ec
a1
1a
ef
23
03
19
ea
c7
f6
f9
01
04
f3
ff
fb
0c
09
fb
16
04
06
1a
04
00
06
39
02
f6
f8
da
fd
fc
fc
1a
17
18
fa
11
f8
f6
f8
d6
f1
ff
fd
03
0e
de
fd
0c
19
fe
06
19
cf
e4
29
13
1a
07
09
ed
ee
e4
25
1b
be
11
c0
d2
23
ef
1e
30
15
11
17
f5
f9
ff
17
fa
08
10
df
fb
f4
ff
02
f9
f7
e2
e7
e1
15
ee
fa
eb
1d
fb
ff
00
05
0f
fc
fe
0d
0f
e2
f7
f5
fc
03
f5
f7
e7
e4
e6
0c
ec
fc
ed
1a
01
fc
fa
04
0e
fd
07
d5
fa
0d
ea
f3
eb
fb
f9
f7
0e
10
b7
fc
07
cc
28
ef
0b
16
15
21
e7
0f
dd
f8
dc
2d
22
fd
1f
21
09
f6
09
f6
00
0d
1c
f5
1a
23
ec
04
23
21
03
0e
04
dd
30
14
04
34
fe
fa
e9
22
1e
11
08
2b
fc
f8
03
22
d3
0d
2a
e1
0b
e7
31
10
07
fd
f9
fc
f8
05
e3
ec
13
fe
2c
eb
0f
e7
0a
00
ee
02
25
d7
e3
e6
fb
18
12
00
04
f5
fe
16
26
02
00
09
db
d5
ee
06
04
f3
9e
e8
15
00
ee
f0
f2
d8
c8
de
fe
02
f4
0c
cf
1a
19
f8
1e
2e
f5
df
c5
e8
ca
e0
01
01
f7
e5
ee
ea
e9
0b
2e
e5
ff
eb
23
14
00
3d
e9
0f
fa
02
f9
0a
1a
fd
ea
20
e5
10
11
d3
f5
f1
da
10
c2
e2
14
25
10
51
17
fe
fa
ff
06
07
d5
f8
1e
1c
17
e9
fc
f5
0c
07
e1
06
13
29
59
19
0f
08
0d
23
16
d7
0c
f1
f3
26
ef
e3
ed
10
ce
14
d0
06
f1
16
fd
f1
15
f4
d9
e4
1f
d9
0c
e4
21
13
f5
f6
2f
21
d4
18
e4
06
e6
16
d1
2d
42
f9
04
eb
db
de
04
13
04
13
f9
fd
ea
ff
14
2b
e2
12
fd
fe
1e
fd
dd
28
05
0b
fa
e4
13
81
f3
06
cc
0c
09
fe
1c
f6
f3
fb
ed
e0
0b
19
ec
31
0d
13
0b
18
15
d3
f4
ee
e8
13
e5
f1
25
f5
34
ed
eb
f3
10
1a
0b
ef
e9
10
04
0d
31
f2
ea
f6
00
25
1c
03
20
e0
f7
0b
e4
f8
18
fe
f1
e8
f7
07
fe
ef
13
fe
f9
fb
12
e5
e1
f0
16
17
f8
1b
e2
13
04
e1
2d
00
1b
fe
f9
e8
fd
f9
f4
1f
ff
f3
09
10
20
0e
1a
db
14
e9
f6
fc
fd
f0
04
03
13
e4
f6
d2
f5
1a
29
db
ef
04
05
fe
e5
d3
0f
e6
fe
d2
1c
26
e5
ea
09
fd
12
19
05
f7
ed
f6
ff
03
01
df
fc
0a
26
09
11
02
17
ec
fe
09
eb
f2
0b
ed
07
f2
1f
0b
0b
16
15
eb
f7
17
fe
f7
f6
00
f8
11
f0
11
18
01
10
0f
01
fd
ec
05
16
10
e2
e8
06
fb
0d
24
15
06
0d
d7
be
ec
fd
39
13
ff
c5
e4
0d
ed
ea
f7
ec
ff
e4
e8
04
e7
d4
df
f3
18
f4
d2
f5
d5
c8
06
02
2a
02
ec
06
20
0f
fb
1d
ff
07
12
fb
0e
ff
0d
f1
0d
db
f4
f7
0f
18
16
14
fe
0b
1d
20
e7
fe
eb
f2
ec
0d
01
ec
ce
dc
51
e4
1d
22
25
04
f0
3d
26
eb
3b
ed
13
cd
00
d7
14
1a
cb
d0
ce
f2
0d
12
fa
ed
2e
f3
ee
ec
10
0f
29
f4
1c
14
15
07
19
1b
f9
2a
1f
ee
08
b3
0b
f2
48
e6
e0
09
0f
16
0d
1a
ec
16
25
d7
fe
2f
00
23
02
0c
0e
12
00
e0
00
f9
0d
05
e0
15
81
e6
11
bd
21
14
f8
02
10
f4
fc
09
f4
22
de
09
ec
ea
09
07
03
f8
11
ed
e1
28
0e
f8
ff
ed
13
23
4b
06
1e
08
0a
fb
e3
f9
fa
01
f0
fd
ec
de
0d
f7
f8
de
f5
fb
d3
3e
f0
01
fd
03
0d
f3
06
0a
18
c5
e8
1b
b4
1b
0b
09
d5
f3
1f
00
e1
1b
f6
fe
d7
29
06
f7
01
16
15
06
ea
01
1a
d9
d5
09
23
ee
45
f6
1d
0e
1d
e6
04
e2
f2
fb
e9
25
1c
f4
c9
1c
10
1d
f1
f4
d4
02
41
ef
12
24
c7
e2
17
fc
1a
e7
2b
da
f7
0b
41
18
21
12
03
fa
1d
10
07
04
f1
06
fe
13
0e
17
f5
02
03
1d
ef
06
0e
04
eb
dc
0f
0a
f5
04
e2
0a
ed
16
09
0e
f4
e1
f3
28
16
f6
00
18
0f
f9
dc
fd
f1
15
02
03
ee
e2
01
fb
0d
f9
e6
ef
ea
fc
01
0c
fc
ee
15
12
0e
0a
01
1a
1c
f0
07
04
f7
02
f8
ee
08
f7
f3
05
20
03
19
13
f7
02
f6
f3
06
db
09
0a
05
0d
f7
0e
e4
fa
eb
e9
16
05
00
ec
0a
ec
f0
11
11
01
05
ef
11
3a
26
eb
23
37
06
ff
de
fd
02
ed
fc
fa
fe
e7
fb
fd
06
d7
f6
06
de
1a
fa
01
08
fc
08
f6
fc
f3
09
12
fc
01
fd
fb
1c
ff
f5
e4
fb
ed
00
eb
18
0a
fc
15
05
f3
13
fa
10
1b
cb
1c
f6
f7
f1
20
0e
1d
ea
e6
e8
0d
1a
0c
00
f0
f3
ee
e4
07
e5
0f
14
d3
11
d7
1b
0f
00
e7
ee
fd
f0
0f
04
dd
f1
f2
f8
fd
31
0e
1a
30
14
01
f7
d9
e6
04
1b
ed
20
3b
fa
ee
d9
f5
10
f7
34
2c
30
fd
c1
ec
1f
09
f8
08
03
0a
e9
d2
fc
f4
fe
03
f7
38
3f
fa
f5
f1
08
ea
ed
06
1b
07
09
e1
1b
f7
04
0c
0b
f2
10
0a
ec
fa
00
00
ed
17
f5
f6
1a
0d
06
15
07
0e
09
ed
ea
f1
09
eb
f7
e8
ff
0b
01
0d
f7
10
f6
18
0f
11
ec
0e
02
0e
e7
04
07
09
f8
fd
13
f9
04
ff
f7
fe
05
fe
07
17
00
f4
01
28
0b
fd
1a
00
14
fe
f5
e8
ee
01
ec
e4
d3
f9
bf
ec
e4
ff
09
07
d6
f9
ea
fa
f9
34
ee
e6
15
0b
eb
11
26
10
9a
05
fb
07
e4
f5
0c
ea
e9
fa
16
0e
00
0a
f6
f5
fb
f7
fd
eb
f3
16
f6
1e
f0
21
ed
18
d4
d0
fd
f8
18
f2
14
18
f9
04
13
df
13
d2
e9
ec
e9
e6
06
02
00
05
cc
fd
f1
f4
e0
fa
fa
1a
f3
d4
e2
fb
10
e3
dc
17
23
e8
dd
f4
f5
17
f6
09
16
fc
f5
04
07
0d
0a
2f
ee
ec
f9
3c
1b
f1
33
bf
1e
fd
f3
f5
e1
11
f4
ea
0a
0c
fe
02
fb
01
0b
f7
fd
e2
fd
df
2f
e6
11
ff
19
fc
04
01
fe
0a
20
f0
05
0a
e4
f3
fd
fc
0b
f3
03
ec
f9
f4
07
ff
f9
e9
0f
fc
ef
fa
10
1f
f5
e2
e4
13
f3
3c
fb
e4
06
2f
d7
ff
08
00
23
28
15
fd
d4
54
d7
2f
1a
da
fc
26
02
ea
df
fe
21
07
0d
05
2d
da
eb
c7
fd
1c
2d
03
17
0b
f4
ff
f9
1d
02
03
14
07
f9
08
ef
fc
02
f4
e8
f6
e0
e7
1a
dd
0f
09
07
0e
09
f8
f0
00
1a
0c
19
fd
08
e3
ef
ee
d0
fe
1b
ff
d5
f7
34
4e
01
f4
09
f0
e7
fa
12
e6
06
eb
fa
fd
fd
04
fa
00
18
02
e1
fe
0d
fb
f7
1a
0a
04
05
24
ee
f1
02
df
02
06
1b
e3
f4
e2
0f
fa
ba
f4
fc
25
e0
f9
20
32
e2
fe
1e
00
c1
f8
e9
06
14
eb
fc
07
ea
fc
f9
08
0d
00
fe
ec
eb
e5
15
f9
f8
e8
19
fa
00
f5
09
10
f3
1f
d4
de
17
f6
ee
e7
d1
c3
dc
07
0c
ed
03
d7
40
07
1d
f4
ee
f6
14
e8
e9
e5
f0
0e
d9
04
e7
04
38
f4
cb
12
d6
f7
ed
2a
02
ed
20
32
e4
ed
07
d9
cf
0e
09
41
1a
e7
d7
0b
26
1a
eb
eb
fb
da
00
ef
29
21
12
1d
25
16
02
fc
d7
01
24
ec
fa
e8
07
ff
f9
e3
f7
05
06
d4
0a
ed
f7
cf
12
04
24
01
ff
ed
e4
16
f3
eb
f8
02
e6
f5
f6
fe
15
0f
1c
0e
ff
20
f9
f1
00
e1
0a
12
ff
0e
ef
f8
11
cf
e2
df
b3
f9
f5
02
f0
d7
f4
fc
04
2f
22
01
d7
df
31
f8
01
03
14
25
f5
f7
d3
0b
30
fc
06
df
ca
1c
01
0e
0d
f9
fa
ee
eb
d8
02
e4
f0
0a
11
ea
e1
e8
1d
0c
05
e7
e4
e0
e5
11
2e
06
e8
1a
3f
4f
db
14
f8
10
27
01
10
09
05
0a
00
fa
05
09
f3
ff
03
12
bf
fd
ff
e4
01
03
fc
fb
0c
f4
f7
05
ea
f5
31
1c
b4
0f
02
10
08
f7
23
01
16
2e
1d
03
f4
79
f2
02
eb
fc
18
ef
fc
fe
05
05
fc
ed
17
01
03
2e
01
f7
03
0b
ff
0d
e0
05
ea
0e
0e
0b
e6
f1
fd
06
fe
19
eb
1d
f3
f9
fb
f9
0b
17
fb
22
e2
0d
00
f7
f1
05
fe
22
ec
c1
2e
f5
fb
04
eb
f5
f3
02
20
09
18
fe
f7
08
06
08
dd
fb
05
04
f7
f0
f6
07
eb
f1
1a
3c
1a
f6
e0
f3
e8
f5
f5
f4
06
11
06
ea
eb
e7
02
ee
fa
d7
35
ff
f4
dc
12
1d
09
f9
d9
f6
f1
16
e7
13
07
00
0b
e3
e9
ec
fb
ab
f3
fa
27
f8
fd
00
c6
11
de
f6
ec
03
0a
1b
0c
fe
12
1f
24
00
f3
78
fb
fd
eb
c9
f4
ea
ef
17
13
ef
25
11
16
2e
0f
e2
e9
0f
07
24
f0
1c
e8
18
f7
f9
00
28
e8
f7
0a
fe
02
f4
0b
ec
10
f9
fc
15
fb
0b
0d
ea
02
07
f9
e0
fd
07
20
05
f4
ef
f8
22
03
11
d3
db
02
0e
01
1c
f8
0f
e5
0b
f3
e1
1c
e4
c0
fe
f7
04
26
ef
3d
1d
fd
d1
ed
05
e5
ec
ec
ff
d3
2c
12
e6
26
1f
f0
07
13
0a
e4
ea
e6
2a
06
ed
db
e8
10
1f
f3
eb
d9
da
f1
f1
f1
0a
f7
ec
20
54
20
f8
e0
12
15
21
f8
