00
ff
00
ff
00
05
00
00
00
01
fe
03
00
f9
24
02
05
db
00
ff
f9
00
03
38
00
fd
fe
fc
fd
fc
03
25
f3
fe
fe
f7
1c
5b
15
0b
14
08
d7
9a
dc
fe
06
f7
09
10
ac
00
39
0b
00
04
fc
01
00
d7
ff
fd
2e
e9
f4
25
8f
f1
7f
e9
f8
1e
ff
05
fc
01
cb
09
00
01
fe
00
00
00
00
00
00
00
00
00
05
fa
ea
f7
08
12
eb
0d
14
09
4d
30
04
04
fa
f0
b4
d2
ff
02
ff
00
01
e0
fe
01
28
fd
00
fb
01
02
fa
fa
fb
23
00
00
00
00
00
00
00
00
00
00
00
00
00
00
00
00
00
00
ff
00
00
00
00
00
00
02
00
00
00
00
ff
00
00
00
00
00
04
f2
04
19
dc
14
fd
04
fd
07
f6
e4
e7
12
2e
f6
07
06
fe
00
f9
fe
fd
fe
fa
fb
2c
01
fe
fe
fd
ee
f7
05
25
e1
0b
f8
d4
ed
06
2d
e1
0b
2f
00
00
00
00
00
00
00
00
00
01
07
09
04
f2
fc
0e
fa
ec
fe
00
01
02
32
f2
fc
fd
f9
ff
fe
fe
05
24
f1
ff
fb
ff
03
fe
da
f5
f9
2b
eb
07
2d
02
04
10
07
fd
e2
09
fd
f4
01
fe
00
ff
fa
fd
ff
fe
fe
09
ef
d9
eb
fd
3b
ea
15
1d
05
fe
fc
18
fe
ea
05
ff
fd
