12
e1
18
eb
fe
cc
1b
c9
20
03
f0
06
1a
cb
22
02
ed
0c
fb
ed
f8
08
10
fa
fa
29
02
fa
06
fa
f3
38
0f
f8
dd
f3
fd
04
f8
13
11
17
fe
0b
fb
00
03
00
01
2c
f7
01
d0
0a
12
0c
10
21
b0
fe
0e
12
19
0b
fa
ed
0b
42
df
ec
df
04
03
fd
fc
f4
35
e1
fb
f7
01
01
d8
fb
fb
4b
08
fd
e0
fb
e5
3c
e5
44
81
48
e9
3d
ee
0e
17
13
cf
df
b9
0e
32
26
fb
ff
17
ef
f9
2d
f4
03
f1
02
f3
fe
d8
53
ea
04
eb
fc
f4
12
f9
14
14
0d
00
0b
fc
ff
0b
fc
21
03
00
fd
04
00
ee
fb
06
eb
ff
26
f4
0b
09
03
fc
ff
09
d7
01
f3
2e
03
ec
ef
e9
e9
58
0f
f4
f7
e9
ff
08
00
fc
23
fb
08
d3
05
f5
27
f6
e0
f6
d8
f1
36
f1
e7
f2
1a
f7
41
f4
17
f4
e4
f4
f1
fb
fd
f0
36
f7
07
0d
fe
03
ff
fe
34
f7
01
fe
01
02
0e
03
f1
f4
19
fc
13
06
eb
ee
e7
ef
68
0a
e3
f6
ec
f7
f6
e2
0c
31
00
ee
12
f5
0b
31
13
11
00
e6
ef
dc
e7
0a
17
06
03
1c
0a
f5
d8
f5
02
ec
f6
ec
47
e6
f9
ec
02
fc
f5
fd
f8
3d
09
03
f3
ef
f7
e4
f1
ff
11
07
fb
3e
02
03
04
04
03
d0
24
0a
17
e1
f8
df
f5
03
31
1d
f8
e2
f2
09
fe
f8
03
38
ef
f3
da
08
00
f5
06
08
d6
01
f9
34
f9
0b
25
05
ff
ca
fc
01
07
00
05
05
fb
fd
2e
da
02
0d
f3
18
ff
04
04
c7
01
fe
fe
18
03
ff
02
1b
bd
14
06
f6
04
f9
eb
f4
e5
68
fb
f9
f0
f2
0c
04
08
21
c9
07
0a
ed
08
f7
24
02
eb
e6
44
fa
e7
f6
f6
e1
f2
11
33
da
f8
04
01
00
0c
02
f7
cf
f4
05
29
03
f0
17
01
08
39
da
0c
ec
e6
00
01
ff
fc
ba
46
fd
f6
08
ff
e3
f3
0d
2a
d5
f2
10
02
e6
ef
30
f3
19
fc
33
e5
d8
f1
da
00
e0
0b
14
fd
18
00
f0
ff
04
d6
0c
1d
f8
04
0b
ff
07
03
03
d1
f2
01
fd
fc
f6
db
f1
12
2a
ef
03
0d
fb
06
27
f3
29
c3
ef
ef
f0
25
0c
22
07
f8
0e
0a
f4
d1
f4
f8
f8
f5
f7
50
fc
f0
0a
f7
f7
16
0c
ee
2d
0b
ef
e2
eb
2c
f3
e0
f8
02
f1
de
e9
35
fd
f7
fb
f8
00
f4
fb
f6
f7
f5
fc
03
ea
06
3f
fa
fe
00
fe
03
03
fb
d1
26
00
f8
07
f4
0b
f9
f1
2d
1a
e8
02
fc
f6
f6
f3
f5
0e
fa
f8
ec
f1
0a
ea
ec
2f
f9
ea
0f
06
f4
ff
ff
03
01
2d
d2
fd
f6
0c
05
25
08
f9
c6
ed
01
13
06
02
05
07
09
ae
ff
04
00
fa
fb
14
03
1b
ad
1b
04
1a
fe
f4
07
13
e7
f4
24
fb
ec
06
e5
de
fa
ea
f8
14
14
43
fc
d7
df
06
f1
0b
12
0d
33
fc
04
fe
01
1a
c5
0c
08
fb
03
f4
e8
f2
24
eb
2e
fa
da
fb
e6
eb
fe
f4
05
1b
09
29
ff
fd
e6
00
ed
dd
0b
04
16
19
f6
0a
09
f3
03
0b
07
10
fd
02
df
18
09
0b
ef
f5
1f
f4
0a
fd
f8
e8
e9
2f
02
13
ec
fa
0b
0a
ee
eb
1e
f6
f4
0a
13
2e
ec
fe
c7
1a
fa
1d
f0
f0
f9
0d
07
df
03
ff
17
e4
f4
f6
fa
09
43
ea
f8
03
ef
f8
ed
04
f0
09
1c
fd
13
13
06
10
07
14
eb
fa
04
fe
fa
11
e8
df
10
3f
ec
d9
05
18
14
fd
eb
fb
60
d3
f0
d8
02
00
f2
02
fe
31
06
fd
0b
01
ff
00
fd
07
cb
3c
ff
ff
ff
fa
fc
04
dd
3e
f5
fe
02
fa
fa
f0
e7
1f
14
f1
0c
17
fb
f7
10
f3
fe
26
ed
04
cf
17
ff
e2
ec
fd
01
01
fe
1f
14
ee
fa
fb
f0
3a
0c
fd
08
e1
09
1b
06
ee
b9
f7
09
27
15
fb
fc
de
01
2e
06
f2
17
fc
f8
06
f1
f2
3d
ff
f5
0d
ea
09
cc
11
23
ed
34
0d
be
19
ff
f9
03
f5
3e
ed
fb
01
f7
fd
01
09
03
30
d7
fd
e9
13
f7
04
15
f2
0c
1e
e5
ea
f9
04
19
f1
06
51
d9
fe
e8
de
0b
14
0e
18
ef
0e
0f
07
0b
00
1a
03
f0
c8
ef
07
27
09
16
07
f3
29
fd
e2
07
ee
ef
ff
f5
fe
f4
31
01
fa
fe
08
fc
f9
0a
02
28
db
fe
f2
11
fb
28
df
e6
01
27
1a
de
fe
f8
ed
00
0c
ef
d3
12
2f
06
f7
00
25
02
d8
ec
1c
fb
ed
06
f8
04
1d
bd
1a
09
f4
02
09
df
f5
d7
27
ed
fe
df
ec
0d
0b
f5
07
07
d3
16
0d
f5
ff
2d
18
f0
e2
09
07
e6
f2
00
02
00
00
e1
1c
02
1b
e2
fe
08
fb
07
3a
00
fb
05
fd
fe
06
fd
f2
dc
32
06
13
e6
1c
0a
ff
18
e5
e8
fe
03
f9
fd
fa
05
03
48
0b
fa
d5
de
f0
ef
f3
06
e8
e2
0e
3f
0f
f3
00
f9
01
3f
f8
f1
f9
f2
e6
1e
02
22
15
d1
ff
da
15
ff
03
fc
f8
cc
00
07
35
04
f9
fc
fa
fb
e1
fd
f1
51
fc
0c
04
eb
19
53
e4
e5
dc
fa
05
02
08
fc
41
18
f8
c4
dd
fe
03
ff
f7
32
ff
fd
05
fe
05
0b
fd
04
2e
18
f8
02
01
fc
17
13
e3
ef
1c
00
e1
ff
0a
2a
02
00
e0
f5
fc
fe
fc
04
18
09
1d
bd
14
0a
12
0d
de
f3
11
f4
cf
21
16
2a
04
01
00
fc
01
23
0c
00
01
fa
03
1d
07
01
c6
fc
04
18
05
01
f9
fd
fd
32
0e
fe
e8
fa
f9
08
fc
03
39
f6
fb
f7
f6
ec
f5
21
04
d5
f4
28
fb
03
f2
fd
f8
0b
5b
e2
f7
e5
f6
f7
f4
f7
ef
27
f1
fd
f0
f8
0a
3d
0a
13
f6
d3
08
d8
fc
01
04
fc
06
29
15
fa
04
00
f8
00
04
1c
d3
3f
00
ec
10
03
21
fb
17
1b
e4
f8
e4
ea
06
00
fe
f4
27
ea
02
04
fa
fc
fb
fd
06
e7
3c
fb
f7
03
