ff
07
f9
12
fe
4a
18
fe
fb
01
00
1c
08
f4
00
00
00
00
2e
dd
eb
00
f7
ff
11
1c
07
04
04
09
1d
13
02
02
c4
f6
0b
fe
fa
09
0b
00
0f
fc
f3
16
00
00
00
00
0e
2c
17
fe
f5
00
f2
0a
ea
22
f2
fc
19
f6
ff
3c
0c
2c
e5
e9
e2
07
ee
00
fc
23
09
fc
00
01
01
00
06
05
02
3a
08
00
00
dc
fb
33
08
02
f2
00
04
f8
f2
0e
31
cd
05
07
e2
00
03
d1
1c
23
00
00
01
01
f5
d9
df
2d
f5
00
f0
03
d5
d3
e2
22
01
fa
fe
db
1d
fd
13
be
07
e1
12
ff
0f
f6
ea
fc
ff
01
00
00
29
0e
ed
20
eb
00
06
06
14
03
07
fd
2c
23
00
ec
fe
c6
df
e7
2c
2f
2e
00
05
2f
fc
07
00
00
ff
00
01
fa
f1
29
f7
00
0b
10
f4
1c
00
07
c5
fa
00
2c
f3
d7
d0
02
05
a9
14
00
f8
15
f3
12
00
00
01
01
e2
04
00
24
10
ff
0c
15
e5
06
0b
17
12
16
fb
0a
17
fc
32
36
ea
13
f5
00
11
c6
e9
00
00
00
00
00
ee
24
f0
34
e9
00
1e
04
06
1d
28
09
ef
ef
04
fd
24
ef
0c
24
f4
f2
12
01
00
fd
1d
16
ff
00
02
00
00
0e
05
1d
06
01
d5
01
f1
01
d3
fb
ec
1c
ff
dc
fb
e3
ff
06
f4
09
1a
00
fe
05
39
fd
00
ff
01
00
f4
f7
f4
1c
06
00
0b
e8
0b
2b
13
06
53
f1
02
15
f3
f3
f8
fb
ed
e6
0b
00
40
08
0d
ed
00
00
00
00
f8
f7
fc
f7
81
00
e4
ed
16
0c
f9
ec
f7
07
01
ed
21
10
f6
e9
e9
0e
bc
00
02
05
e1
fd
00
01
fe
01
d8
e5
0c
0d
f6
00
f0
1c
f9
3c
ea
f5
1b
f6
ff
36
ff
f1
0b
d6
d4
11
22
00
f7
da
2b
f4
00
00
00
ff
0d
f1
06
d2
0c
01
0a
25
0e
ec
07
fc
11
fc
fd
d9
fb
04
11
f6
11
cf
d7
00
fa
03
3e
ed
00
00
ff
01
fe
19
16
e3
11
00
15
16
02
1a
22
f5
be
1b
00
d5
fc
17
cb
13
a0
07
fe
00
07
29
01
04
00
ff
ff
00
10
11
f3
03
f9
00
09
08
ff
cf
07
06
f5
f4
00
e9
e8
f0
20
fe
d1
ec
26
00
ea
e6
de
f5
00
00
00
00
15
d7
04
03
1e
00
05
ed
f9
3f
fe
fe
d9
0b
