03
f8
15
0d
0d
ff
33
ec
14
03
1c
08
05
01
04
03
09
ec
f6
ed
05
04
09
0e
f8
e3
10
fa
04
15
00
22
02
f3
00
1b
f3
ee
16
ed
f5
24
07
e1
05
06
df
eb
07
05
ee
1c
07
ea
f3
05
0e
13
00
fb
30
f3
25
05
02
04
03
22
f7
0d
06
ee
f8
f5
11
f7
dc
f7
03
04
f9
e9
fb
f7
05
ff
f4
ee
ce
f2
f1
ff
1c
0b
12
12
ce
fa
26
0a
fb
08
d3
0f
e3
ee
21
07
06
12
02
ec
ca
f3
fd
39
2e
17
f7
35
f0
03
10
00
04
c0
09
10
ff
02
19
ed
e0
e8
13
f8
00
f4
fb
14
06
fc
f8
02
eb
c3
fc
f2
05
e4
da
fe
fe
14
03
0f
f7
06
e6
03
fc
1b
dd
0a
18
0b
f7
06
f3
fa
ec
07
ff
07
20
08
0a
1c
eb
03
18
0f
00
1f
ff
da
f0
fc
f7
f8
f5
df
0f
f5
0c
0d
ef
2a
03
ef
f4
1a
08
fa
25
ec
fb
f6
12
ee
e0
e5
18
01
fc
00
f3
18
fd
0b
09
f7
fa
17
ed
de
ed
04
1c
ec
16
f9
fd
01
fe
19
03
22
db
e8
04
f9
f5
0a
15
f5
1f
f5
f1
fe
f9
10
03
ff
f1
1d
d9
02
28
fa
e9
00
ee
0a
ef
ee
13
2e
f5
0c
0d
11
dd
da
fa
10
17
0b
03
18
ea
ff
0d
0d
f7
e1
f2
13
eb
06
f8
1c
21
13
c9
ec
01
2d
0d
27
f1
3d
13
db
0a
0b
ee
e4
ef
eb
e9
04
fd
f8
ff
0d
f8
0c
07
f1
f7
0a
06
03
27
0f
fb
fe
fb
f3
11
0a
03
19
10
07
23
0b
f2
15
dc
0c
0c
23
f9
f2
05
f4
e8
f5
f3
da
31
f3
ff
ea
01
44
f7
00
14
fc
ef
08
0e
13
f6
ed
12
f7
07
06
f7
e5
0d
16
f1
fc
16
20
16
df
f6
00
19
1e
02
0b
f8
0e
ef
0d
03
e7
f4
f3
f5
e4
13
06
f7
17
11
ee
f5
f9
ec
09
0d
f7
fa
ef
0e
05
14
fe
12
02
13
13
1f
06
14
ee
18
f0
18
00
0e
0d
1e
0c
10
f6
03
00
f1
0d
1a
f8
0a
f1
f1
f1
07
f8
01
12
07
e5
0b
e6
e5
14
06
e1
04
ff
0a
1b
0a
f7
1f
0b
e0
fd
fb
1b
02
0c
f6
e9
ee
03
03
ee
25
31
1e
1b
fa
0b
e0
f0
09
03
e2
0f
f8
f5
e5
0d
f4
16
0a
06
eb
05
f0
01
32
e7
f9
f6
f2
0a
f6
01
33
20
22
0c
e9
15
f3
1d
10
1a
01
ee
19
e7
f3
02
07
e3
f7
1f
0a
14
04
15
f9
f4
df
f2
11
03
2a
16
00
f7
08
14
04
34
15
0a
f4
1c
fa
02
06
16
00
ff
10
07
e6
f0
f2
14
1f
e7
fd
13
0f
0d
dc
13
eb
f1
ee
1c
f7
0b
20
e9
f2
f8
fb
f6
09
f8
ec
fe
01
06
0d
05
0e
e6
05
00
ef
02
ed
eb
04
ff
11
e9
02
f3
0f
02
0c
eb
e7
06
0d
f7
05
e6
fb
f2
09
04
02
f4
d7
1a
10
f7
00
10
2d
1d
eb
0f
ee
fd
02
f6
07
0b
13
f4
f8
06
1d
f5
f2
17
08
f2
ff
f2
fd
05
14
2c
ff
e4
f1
fb
f3
fe
09
08
07
13
f9
1a
fa
15
ff
03
35
16
f1
ea
29
32
16
ff
19
f2
fc
f2
2b
d7
ff
fc
0a
02
d3
d5
e8
0f
e9
13
17
de
0b
ee
e9
e9
03
0f
f1
04
fa
f9
2b
00
11
ec
f4
0f
fa
e9
0b
07
ee
16
0c
14
06
de
09
f5
e9
20
12
0a
1e
ff
d5
fb
22
23
26
dd
ec
f4
06
f4
18
28
1b
07
f4
ee
f7
02
04
e3
ec
f3
f8
19
06
ec
07
fd
c7
f1
f1
04
dc
fe
f7
f5
ea
f7
f9
f1
1d
01
ec
01
05
f5
28
e9
15
17
ea
f7
fb
f4
05
04
31
12
fe
d7
f8
e9
02
dd
0b
f5
f6
fe
00
2d
f7
f5
0b
ff
e8
fc
eb
fb
d5
fc
fc
fc
f6
14
ff
06
d5
19
05
04
03
05
ee
ed
f0
04
ef
ff
0c
e9
25
05
f3
fd
0c
f8
06
f7
e8
f5
01
f9
37
20
12
26
29
01
09
f6
07
f3
0c
0d
f7
16
02
1d
2f
f6
30
cd
e1
03
e0
0a
15
1f
06
05
fc
2a
02
ff
1c
f7
fa
13
11
10
d8
ff
e5
16
01
0f
fc
da
0b
fd
f2
f4
08
00
e6
fd
05
f5
f0
ee
1f
f1
fa
03
f0
12
fa
f2
25
15
f9
03
12
00
cc
d5
fe
0c
09
fd
fd
13
ed
fc
0e
12
ee
f8
f9
16
e5
f5
19
ff
1d
13
14
13
04
01
fe
08
fd
0e
31
ef
1e
02
f5
05
09
07
10
fa
01
fb
f6
14
de
07
19
ed
fb
19
ee
fa
18
f7
02
24
eb
06
14
02
0e
06
f2
f9
04
f8
22
ea
f7
0f
18
f8
fd
ec
fc
f8
f6
1f
f4
06
ec
fc
03
03
05
ec
0b
f6
e8
10
04
ec
06
d9
07
05
22
f1
ed
fa
1c
28
0c
f9
fc
0a
02
f3
11
fb
fb
0c
f8
f4
0b
fa
f4
06
30
ee
fb
f4
1c
f3
f7
fb
df
e5
f1
e0
f4
02
21
06
e8
fb
02
0c
f2
25
1b
06
f2
1e
fa
ef
17
fc
18
1b
25
ec
02
03
0c
08
f4
fd
24
fb
01
09
e0
08
29
28
0e
08
f7
ef
03
11
ff
1e
13
ef
05
e9
21
ea
22
ee
e8
13
01
1e
fd
19
08
10
ee
08
11
f8
07
17
0b
eb
f4
ee
0b
31
f7
02
02
12
10
f7
11
e8
0d
05
fb
e7
f3
08
f3
0a
e5
fa
15
02
d3
0f
dd
08
0f
01
f3
fb
05
fb
12
12
e9
0a
14
f2
ea
02
11
fc
0d
15
12
01
1f
ff
f0
f1
27
0e
f7
de
07
fa
e6
f6
fd
04
f7
10
08
f8
fd
0e
f8
f5
14
11
08
12
e3
f5
fb
fd
00
f9
db
eb
f6
1b
13
fd
06
ec
0b
0f
f6
21
f8
ed
f6
ea
03
03
1a
03
e9
ff
db
ff
0b
fd
eb
fa
1c
14
17
0e
fd
01
ef
f3
f8
f2
06
fa
03
f4
f5
05
fe
f8
f2
03
f5
02
f7
e1
e0
21
0b
e7
12
05
fe
18
e1
05
f9
07
00
04
06
f3
e4
0a
fc
05
22
e7
f1
03
f5
f6
21
1d
04
00
0f
f5
fd
17
e9
f5
22
0f
0d
10
d7
0b
ec
03
dc
eb
15
03
16
f3
02
0d
fd
28
de
fc
f7
f5
fd
f6
e8
18
df
eb
08
d9
37
0b
eb
00
fc
0d
f3
d9
0e
19
da
0a
22
02
0e
c9
02
f3
f6
06
f8
09
18
db
fd
d7
02
ff
f2
ef
15
f5
f1
0e
0d
1a
e5
ec
ee
e7
fe
f5
da
f9
11
23
f5
f1
0d
1c
ea
fc
04
0d
fc
f8
ee
e2
0f
f3
ea
ff
18
0d
e6
f1
01
04
11
06
f9
00
04
fd
f1
08
01
1b
f8
f0
03
05
f5
03
fe
20
f5
fa
f5
14
04
09
fc
e5
f7
0a
ed
ec
19
f3
00
18
dd
04
07
15
fa
09
f4
06
f3
00
df
f3
1f
e2
14
12
eb
0c
0e
11
f9
fb
ed
07
08
00
d9
fb
0c
df
02
cd
ed
e6
04
db
fb
fa
05
f5
06
f2
ef
12
0e
00
09
ef
f8
0d
f5
ee
ed
13
17
e2
04
10
08
ed
ff
f5
18
12
0f
0c
0d
09
e8
11
0d
ed
fc
06
f0
f2
05
01
06
fe
07
ee
f0
0e
e3
f1
03
f1
00
e7
09
fa
fd
11
f3
f0
02
f7
f9
e8
06
0b
e3
0a
01
e5
1a
e1
06
05
17
f4
e6
eb
18
21
fb
fa
00
0c
f7
15
09
04
06
1b
f1
12
eb
eb
0e
fa
e8
0d
0a
15
fc
ea
0c
17
e7
0c
12
01
0a
11
02
06
22
04
e2
f5
0a
00
eb
f7
f8
f1
18
25
0a
0c
ff
16
10
04
1d
ec
fb
12
02
0c
d1
f6
e0
14
fd
0a
0b
d4
0d
f1
ed
f7
fd
fa
df
05
ff
f3
f4
f9
06
ff
ef
07
e9
15
f3
fd
1b
0f
0d
01
01
ec
e4
00
ef
22
14
0b
fc
1a
08
01
05
09
04
eb
19
20
0c
e7
1f
0c
f5
fd
02
00
01
ff
1c
11
fb
f7
e3
0f
fe
0c
04
f5
ed
00
fb
05
ee
f0
0d
08
20
0d
ff
04
e6
f1
07
f0
09
fa
19
11
fb
f6
e1
c5
04
00
e7
15
fc
06
f2
04
11
00
1a
0c
03
f4
10
f4
d9
fb
f8
01
2d
14
de
f3
de
f1
17
04
de
f6
14
cf
1a
03
2d
25
eb
05
11
1e
f4
ef
26
fc
07
32
0f
0b
f1
f2
ee
ea
19
ee
e2
08
f9
ed
db
f5
0b
0e
d1
04
13
03
de
16
c8
07
13
f9
fd
10
e9
0a
fc
ea
fa
00
1d
ef
f5
10
06
f6
fc
02
f7
f4
25
fe
e8
f8
03
25
f5
e0
f8
ec
eb
fe
02
0f
0a
1c
03
f5
ff
23
ea
fd
19
16
0d
0f
fb
ec
e7
19
f4
01
0c
1d
03
07
1f
1b
f2
13
2d
20
fa
fd
d7
0e
20
ea
09
ec
fe
04
f8
f0
03
07
db
20
fe
0f
d0
f1
f5
00
d1
05
05
fb
dc
01
0c
0a
00
0d
f3
13
03
fd
1f
03
fb
f5
01
fc
f8
f8
0b
f5
0a
f7
f4
01
fd
ef
0f
ef
1c
f1
ef
ff
0d
dd
fc
1a
13
11
f0
fd
02
fc
0a
02
15
1d
0b
22
fa
06
e0
09
11
06
f1
1e
09
15
f0
2b
07
03
f9
00
fa
01
10
ed
dd
01
f5
ef
fa
f3
04
f1
00
f2
fa
20
fd
f4
01
fe
05
13
f1
f7
ea
ef
0e
e8
eb
18
00
10
ee
06
fe
26
cd
18
24
f0
09
12
f9
ee
18
01
ef
01
01
f8
f9
f3
f8
02
ff
0d
dd
e5
dd
f7
ec
10
1c
09
f8
21
0d
13
fc
ef
f6
1d
ef
f6
3a
1a
fe
0b
37
fd
1c
ff
04
f7
fb
16
05
0c
07
00
fc
19
e7
0d
f0
21
fc
ef
2c
ef
07
fd
1e
f3
f7
e9
06
21
0a
0a
e4
1f
02
0c
0d
0a
f5
1e
17
db
f4
e3
07
f2
f4
f1
0d
dd
f9
03
dc
0f
fe
ee
0c
f2
06
0b
fa
e2
02
fd
0e
e5
13
04
0d
e1
08
ec
18
fd
0e
00
f4
ff
f9
d2
24
e8
f2
16
01
09
f1
e1
f8
10
f3
0c
0b
f6
15
fb
ed
0f
fd
15
f8
f9
fe
fc
eb
ea
f0
f8
d4
fb
fe
ff
f7
02
e3
36
0b
2a
06
12
18
0b
f4
16
dc
17
31
cc
e7
15
01
f5
ec
f3
04
09
fd
1f
14
0b
f1
2e
fd
0b
f7
21
ff
fa
16
f4
f3
03
09
01
07
f1
0a
15
15
f8
ed
1d
01
fb
0a
0b
fa
1e
02
e0
2b
ff
04
e9
0c
04
f7
03
0b
0f
15
0c
f4
1b
01
f6
fb
0c
e8
f6
03
f9
04
09
f3
f2
ff
04
04
23
06
e8
14
e2
f0
f2
18
0c
08
fb
0d
ee
0c
11
02
0c
dd
fa
04
f4
ef
f5
01
ed
fc
31
0c
24
04
0a
14
15
c0
ca
f3
0a
f1
e4
17
08
01
1a
f0
28
ff
0d
d6
fe
0e
07
01
0c
12
23
1b
f5
dd
05
06
f5
fc
0c
04
f3
04
1f
09
18
f8
33
f7
f7
fd
08
ed
0f
2f
e7
e9
08
0c
01
ef
f9
0c
ee
00
f5
f8
1a
1a
02
fc
01
00
03
e1
f2
ee
1a
0b
c5
17
eb
02
c9
f4
15
f1
e6
13
1f
01
fe
da
20
fd
ec
d1
df
2b
f9
1e
fd
fe
ec
0c
f3
f1
ed
fc
09
e9
29
07
06
01
12
19
fc
c6
fb
01
04
0d
04
13
d2
ff
ea
16
18
1a
04
04
08
10
f0
fc
0b
07
f8
ec
0f
07
08
da
fc
fe
f8
04
f4
fd
23
ec
05
fa
f4
f8
01
df
2e
03
fc
2f
08
de
00
e3
09
fb
f9
fd
18
0d
01
e4
d6
f8
0b
0e
1a
ee
13
11
1a
16
26
1b
13
09
09
fa
e7
eb
1c
e0
ff
f1
04
e6
e8
0a
f9
f3
05
fd
06
0a
02
3b
fa
fe
f6
1b
18
fe
eb
16
e5
fb
f0
fd
fb
0c
16
16
03
03
09
f3
02
07
0e
09
0a
09
04
dd
03
08
1c
f1
fc
fb
03
f9
e9
08
0a
11
10
f8
19
f4
05
fa
18
09
1b
fe
ea
06
0b
d2
e0
f4
f7
da
dd
e6
04
fe
e3
1b
10
03
07
ff
fa
fd
fd
cf
0d
fb
fb
ef
0b
16
0c
16
f9
e4
03
fe
e8
05
14
f7
02
02
f6
05
f2
ff
f4
e1
0c
11
0a
e6
ff
01
fd
db
fd
0b
ec
18
06
e8
f0
f8
e4
e6
08
07
ea
ed
f2
04
fa
04
e8
ec
fd
f8
f2
f4
0a
fa
fa
11
fd
f4
f6
0b
fb
0d
ed
00
04
f6
0d
03
f9
0f
ee
0d
14
21
ff
00
0f
0e
0f
fc
0f
07
3e
0f
0c
12
ed
f0
0d
13
01
de
0f
f6
fc
06
03
fe
e1
fd
0c
00
0d
08
f9
ec
04
07
02
f6
17
ea
f6
02
14
01
11
0c
e9
f2
c3
fb
e5
f5
03
04
00
0e
f4
fb
0e
fd
01
f8
e6
fe
f6
e4
df
f2
f4
e2
05
1b
ff
17
11
f0
15
07
03
12
fc
01
0e
07
e9
de
da
ec
29
13
06
ec
22
ee
f9
f5
19
04
f6
0a
11
15
1a
0c
fc
1c
ca
df
f9
11
e6
fa
e4
1d
ea
01
e9
0d
fb
dd
07
14
0d
fb
f8
ec
f1
06
13
08
08
fb
09
0a
f6
38
f3
22
f0
3f
e1
23
00
55
ec
08
e3
f0
01
fd
fa
fd
e8
df
fa
06
3e
ff
f1
2d
eb
fe
28
e7
1d
02
e5
f9
17
eb
f8
1c
f2
e6
ed
f6
15
11
fe
f9
06
03
03
e3
f8
13
e5
f9
e5
04
e9
22
02
fe
ec
07
05
f9
25
c6
f3
f1
04
e3
17
e7
f6
ce
0f
ea
f9
13
dc
fe
03
eb
1d
2a
fa
f0
f5
01
1b
e8
01
08
fc
0b
ee
14
1a
04
04
f9
05
f8
ef
f3
00
0e
11
ff
01
37
f9
f8
f9
f4
05
f7
e3
04
fc
0e
12
f7
08
10
fb
07
0c
e2
08
0e
0b
0f
09
10
f3
07
db
25
f4
ff
09
08
ff
32
de
04
02
f1
f2
17
00
ed
05
08
e5
fe
10
f5
f4
11
eb
f4
16
eb
09
0d
ff
ed
fa
09
26
19
f0
fd
02
fb
e7
d1
e3
10
e1
02
f8
10
fa
fe
f9
ec
f5
09
ea
02
19
fc
ea
f5
fe
20
f9
0e
08
e4
16
e8
f1
0e
0b
17
ec
03
e1
1f
e6
e7
dd
fb
0e
ef
18
00
1e
cd
f9
fa
ef
21
ef
1d
ff
0f
f1
ed
16
01
0e
fd
f1
12
ec
eb
05
0b
05
02
f3
12
11
13
0c
06
1a
06
1d
1a
07
02
f8
ff
f3
16
e2
e4
05
fa
fa
f1
e8
23
ed
0f
02
27
ee
e7
fa
09
23
ff
fc
f2
fb
0f
16
14
ff
04
17
18
f4
f5
ef
15
0f
fd
f7
1b
df
f7
f8
ef
0b
08
f7
0c
f9
11
1d
f0
f6
ec
0a
09
ef
18
22
1d
e2
fe
05
ef
13
dd
e8
fb
02
ef
1b
ed
e7
e0
07
00
13
07
06
e3
25
05
ea
3b
fa
f9
fd
0a
0b
e1
2c
2c
ff
27
f6
f4
f9
0a
04
de
f9
04
03
0c
f9
03
00
f1
02
db
f7
f6
eb
05
f2
13
e0
ef
0a
ef
fb
0e
07
1b
28
0e
22
f4
0c
0d
06
e5
0a
f5
06
ea
f1
f9
01
e9
e3
f7
12
f9
00
fe
fd
fd
e4
01
fb
0e
f3
fe
d0
1f
1c
f6
11
07
01
cd
0d
f7
fa
29
07
f9
f2
06
12
00
fc
f2
ff
ec
f8
f1
fe
24
0b
02
02
ec
06
e2
05
19
fc
0b
05
15
fc
fc
fb
14
ef
d6
08
02
01
f0
e9
25
f0
1d
fd
2d
e9
ed
f2
00
28
f8
05
ee
05
13
20
1f
ff
fd
21
25
1d
1b
12
09
16
dd
00
f9
f0
08
17
f4
04
23
f0
04
00
13
f2
f1
df
e4
f2
2b
ff
f9
0a
0a
00
06
09
ff
0d
ea
e8
f4
0a
09
10
05
e7
2a
07
08
13
07
1b
2e
19
e2
07
f3
fc
02
fe
fc
f7
f9
ed
07
10
f0
fa
01
01
07
f0
fd
fd
06
09
f8
f0
12
16
01
f2
01
fd
30
fa
fc
1a
db
e8
03
f7
f9
16
02
e3
f3
16
f6
ff
fa
fc
10
e0
e5
f4
23
ee
fc
fa
07
f7
00
e2
f8
0d
e6
f9
06
13
0b
f2
13
06
f8
1b
0a
06
20
1c
0b
22
14
e0
ec
e6
15
f6
03
05
1b
d7
fe
fb
cb
16
0b
f8
03
f6
11
17
f0
f0
f0
fe
15
e2
0d
09
11
e6
09
fb
11
1d
f4
02
fd
05
ed
03
29
21
03
07
fa
f6
f2
1a
04
e8
f0
1b
f0
14
16
12
09
0b
d8
0c
08
f1
16
f9
1b
f6
12
14
0c
01
fe
ef
13
0c
11
f9
f7
10
07
08
28
cc
fd
12
04
fd
f7
f0
f8
0f
18
d1
d3
12
f6
10
09
0c
20
1f
e3
fe
01
00
ea
19
14
33
fe
08
2e
eb
fd
fc
ff
f1
fc
e1
f0
eb
14
00
f6
26
07
f2
06
09
1d
15
0b
06
f2
3d
10
e5
10
0a
04
10
1a
0a
dc
ee
fd
05
f7
18
13
e5
07
fb
ee
08
0e
21
08
ec
ed
f1
0b
08
ea
fd
1d
0a
ec
0b
05
03
f4
01
0f
0e
21
0f
11
0b
0e
fe
00
fd
0c
02
f6
e0
ff
f2
df
eb
12
f6
eb
fd
e0
15
01
e5
04
03
fa
01
f3
09
f2
0f
db
0c
09
13
eb
ec
fd
0a
25
03
f1
07
0d
06
f5
e4
e6
07
28
ed
0f
0c
10
f7
f0
f3
fd
14
17
06
e9
ec
ec
07
15
e7
05
19
ed
ea
f5
00
e8
07
12
e7
00
10
f5
09
0b
f2
23
0f
08
ff
f1
22
04
02
0c
11
fe
05
03
e8
04
12
08
df
f2
1e
ed
ed
15
ff
fe
12
ed
07
22
fc
13
0e
eb
01
0d
f9
33
c9
04
28
eb
01
ed
fd
05
02
48
0b
ff
d6
19
e8
fd
d9
0f
f5
f7
00
03
1b
e2
db
30
ec
04
fe
fc
1a
be
0a
e3
0a
17
0b
07
3d
13
26
fe
0d
fb
18
f9
e9
fa
cd
1a
0e
ed
fb
02
1c
02
0f
ef
fd
e1
13
03
22
08
0b
19
f9
07
eb
03
07
1c
f4
dc
08
ef
0d
ed
1d
ed
13
f1
f2
ed
04
04
07
f5
dd
f7
f7
09
e6
f5
f4
f0
e1
05
25
0d
e8
f5
10
17
fe
1c
0d
0f
fd
f9
f5
f5
f1
00
e5
08
05
ff
eb
04
f0
1d
33
19
fe
08
09
f3
ff
0c
f7
fa
e3
f0
d0
16
0c
f0
04
04
eb
f2
f1
cd
21
17
f0
05
ea
0e
ff
0c
f6
ff
0a
11
fb
0d
ff
05
18
09
f5
0b
22
e9
19
0f
fc
fb
10
00
f3
0b
0c
08
e7
10
f8
dd
07
17
01
19
0a
fb
0e
f8
0f
fa
0a
ec
fd
00
f9
f7
ec
ff
f2
27
16
02
10
f8
f4
f1
fb
f8
05
fd
da
08
d1
ec
ff
06
05
06
e4
ed
ee
0d
df
0c
05
0c
de
04
f8
c7
0f
0b
fb
fb
fd
13
16
f7
f2
f3
f5
16
ee
01
01
08
ec
08
f2
f6
25
08
17
fa
27
00
ec
ff
f2
f3
fa
f3
f1
e5
0e
0d
0b
f5
f2
10
fc
f4
fb
fb
11
13
0e
09
f3
04
f7
06
fc
f0
0b
f9
08
08
fa
e5
01
01
29
0d
f0
0f
f1
f2
10
f0
12
f8
13
0c
08
f9
18
ed
16
17
f2
ed
eb
f3
0c
27
d8
fd
fc
f5
fe
f8
f2
11
21
eb
ff
00
17
ee
cd
06
fc
10
ea
ec
0a
ec
1b
05
26
f3
09
cd
0f
01
10
f1
ff
06
08
00
12
ff
ee
06
f3
f9
ff
24
f0
28
fe
fd
08
01
f9
fa
ff
fb
13
02
fc
da
07
11
eb
f6
f4
fc
19
f4
0f
ff
f1
cf
ec
08
e8
eb
e1
0a
11
f7
0e
07
0b
ea
ea
0a
e5
c9
07
d8
2d
27
05
16
e5
ee
0b
0b
e2
fe
02
ea
fa
ef
e0
00
21
f8
00
02
1c
e8
dd
19
ee
0d
09
01
0b
f0
fd
0c
1c
e3
03
d5
ef
fa
f9
06
10
0a
0c
0a
07
dc
ec
f8
ec
e8
fc
f9
0d
06
ef
f3
0e
e0
f8
02
e2
d0
05
da
0f
10
06
12
f5
f6
06
0f
10
fb
0a
06
eb
11
05
11
ec
e0
f5
e4
03
13
ff
f4
e9
15
08
0e
f6
0b
02
18
f8
ee
f5
fc
05
f9
f8
f9
01
f1
27
2c
f3
fa
08
05
10
0c
09
d4
f7
ed
0f
10
13
11
e5
08
03
f9
13
f7
1b
f0
fe
fa
f2
fe
fd
f7
fe
0a
05
24
1d
0e
f6
03
07
12
1a
29
f3
eb
06
f8
fa
f4
f6
f9
15
e5
e4
01
11
0d
1a
05
1f
d8
f0
fe
fd
f7
02
cf
eb
ff
13
10
eb
0c
ea
0d
01
f9
25
eb
f2
fd
d0
fa
07
07
05
0c
05
e3
06
f7
ec
10
19
d8
fb
f8
0d
14
04
02
ec
08
13
f1
f7
12
04
12
09
f6
f9
2b
13
04
f9
f3
f4
ff
0c
17
0e
0f
09
14
17
01
08
f7
fc
15
13
05
fa
12
0d
ed
fc
e8
00
0c
fc
f7
17
ff
05
11
0d
0d
04
fc
f8
34
10
15
19
10
10
02
f0
f1
eb
fe
03
ea
f8
0e
fb
00
fa
f4
12
28
11
f6
01
06
ea
ef
ee
08
1f
fc
e0
1c
f9
f2
d9
ed
f5
18
17
ff
0c
39
0a
24
07
09
09
f4
f1
25
f5
19
f6
ed
ee
16
10
06
e9
f4
ef
0d
f4
ea
03
08
f6
14
f4
0c
f0
f1
e5
01
00
fb
08
ff
fe
0d
0d
fa
fe
eb
fc
f6
10
fc
ec
f9
04
f6
2b
03
13
21
24
11
0d
d6
1c
f0
21
1c
1a
fc
e8
1d
eb
f8
05
12
de
f7
30
0a
1c
0c
2c
f7
f8
c9
ef
16
11
18
16
f4
fc
f8
1a
17
e4
03
15
f1
f6
00
f1
1d
1a
ea
f5
06
f8
04
09
d5
e4
15
f0
ea
06
fc
ef
f1
f8
13
00
f1
e9
07
18
07
ff
01
e8
f6
fd
0b
00
f9
f8
03
26
fa
fa
ff
1a
fd
ff
15
e9
0d
ea
f7
fd
f9
f1
00
12
0c
15
cc
08
e9
ea
f9
fd
f2
02
e6
f1
ff
09
12
eb
fc
f2
03
01
fe
0d
ec
e2
fe
d2
fa
ff
0f
f4
02
0c
f3
03
04
fb
ef
13
f6
f3
d7
00
12
0a
06
d9
01
fe
01
15
f1
f9
f0
06
f0
ea
02
01
fa
05
0d
fa
02
0d
30
0f
fb
12
ed
0a
1d
f5
f5
02
e3
f0
e7
fb
1b
1b
fd
f7
00
fe
db
d4
04
0d
1a
0a
0d
0a
fb
03
0d
09
ff
eb
e1
e6
09
26
0f
f2
d0
01
e1
f9
00
0e
0a
d6
ee
ea
02
f5
04
ea
0a
03
f4
06
ef
f8
0d
f8
f4
f7
ee
12
09
eb
f1
18
db
0d
f7
18
ec
ed
0e
f2
ff
fe
f8
fa
22
0d
f8
0a
ee
04
fd
fc
07
11
e6
c8
fc
df
01
0d
fc
13
f3
d8
e7
0c
12
db
10
0a
ff
de
07
11
f7
f6
12
13
fb
ec
dc
06
fc
f2
ee
fb
22
f8
f7
fd
fb
03
10
0c
e2
16
da
ef
e4
fa
18
13
eb
cf
e4
f1
e7
f4
e3
ec
ca
14
f6
d6
26
f7
eb
18
e7
01
ee
3f
38
1b
2d
0f
07
05
fa
11
0d
00
3a
df
1e
36
de
f3
eb
f5
15
f3
33
f7
ed
e2
2d
ec
f5
dc
10
f3
f4
11
0a
20
ff
f6
e5
ea
f1
f7
03
ec
d9
ea
04
08
fa
f5
f8
07
fa
03
09
12
f5
e6
02
d2
05
0f
f8
f9
07
fc
dc
fa
ff
fb
fd
13
f6
df
fa
f1
19
08
06
07
ff
f4
18
0b
16
f0
03
f4
f3
1f
11
fe
13
0a
2a
19
07
f6
e6
f6
fd
1b
ea
e5
ea
0a
ee
07
e8
f7
11
0b
05
ff
fb
fc
e1
03
f9
03
03
05
04
14
eb
f9
e4
fa
0f
e7
16
14
ed
dc
0a
f9
f1
10
fc
05
eb
03
16
02
12
28
08
fa
e5
f8
06
fd
f7
02
f9
17
ee
19
07
f4
12
eb
26
09
d7
d8
e5
f1
f9
e9
0a
d7
33
1e
fd
fc
ed
df
10
d6
e1
06
e3
ed
fa
12
09
2d
f8
1d
ea
04
f0
d8
08
09
03
f6
e9
ed
f7
f4
fd
d2
11
0d
f9
f4
07
ec
ce
ff
03
11
f4
00
13
03
fe
0a
00
f3
15
04
f6
e2
f6
0a
04
00
01
01
f8
06
f7
fd
13
d4
ed
00
ef
fc
fb
00
dd
12
f8
d5
f6
f3
1b
07
f1
f8
0f
07
11
08
fb
f8
1e
f7
fb
14
ec
fb
e1
fd
ec
10
02
f7
eb
0a
02
0c
f3
f9
ff
00
fa
ec
0a
00
f1
f3
03
07
fd
0d
f9
f2
14
0b
ea
e6
f7
ed
0a
e7
f0
0f
e9
10
fd
ec
09
f3
29
10
1f
e9
f7
ef
ef
23
ee
13
06
03
0b
ff
1a
06
06
10
e4
dc
07
fb
ff
f9
32
fb
fc
02
06
14
03
04
e3
06
fd
04
fa
fc
1a
1d
19
07
f7
fd
ff
17
ff
04
09
0e
f4
fe
f5
17
ed
f2
0b
2d
fc
f9
ee
e4
f5
f0
d7
f9
14
f3
1a
ed
0a
fc
14
f1
ff
ed
12
fd
f4
db
e9
01
f9
fb
fc
fc
07
e7
10
f2
1a
ed
09
0a
b9
21
06
fc
ed
14
28
23
e8
f4
ee
f4
1a
e9
08
fd
06
f5
ff
eb
0d
20
11
13
f8
0f
e0
12
02
e2
d9
f4
f0
dd
1c
0d
0a
18
09
01
ed
f9
00
0b
18
f3
10
d6
06
12
08
e6
12
14
fd
01
f8
e9
db
05
0d
03
ec
f0
09
02
04
18
09
fc
12
0c
dc
e8
07
10
fa
07
19
d9
f1
ff
ff
f1
0b
fc
f7
03
f8
06
eb
1c
10
08
e6
f7
ff
07
ee
f7
ef
ef
fe
fc
c5
f6
f1
ee
fb
21
0d
00
03
0a
ee
e2
1a
02
04
f5
08
28
e6
0a
ff
00
ef
f2
21
f5
07
f4
27
e5
fd
f1
05
13
01
0a
ec
06
0f
1e
23
f7
f8
1e
07
e1
34
30
0b
00
0b
dd
02
0a
1a
f8
ee
fe
04
0e
12
e0
00
05
c9
f8
0d
f7
d7
ed
0d
fe
f0
10
02
14
14
ed
14
01
fd
02
df
0d
0e
04
0a
25
fe
12
d8
ff
04
0e
0a
e1
ee
1a
dc
f0
0a
f8
08
12
09
0a
12
fd
f0
e4
f6
db
0f
08
f0
d6
f5
0a
e8
28
18
0f
0a
16
f4
11
fc
28
ec
11
2a
15
ef
f2
09
fb
0e
40
30
f1
ec
fa
09
12
04
08
de
13
f0
f8
1f
0f
05
0c
00
f7
e4
f6
ef
2f
13
0d
01
1f
fc
08
01
02
0a
d9
18
05
43
04
ce
01
0f
e9
6a
d0
2a
37
c8
de
f3
f8
0b
0d
7f
2e
0f
a3
f9
c6
fe
b5
13
e8
dc
00
05
66
e8
ea
00
07
fb
12
06
04
1d
d0
fc
0b
f4
02
ec
f3
07
0e
1c
07
fb
e7
1d
0b
07
ed
06
f7
06
f8
0b
fd
ff
e8
04
f9
1d
ed
12
e8
d4
0b
fd
14
f7
02
05
0d
e8
06
0f
05
11
06
fc
e5
e5
f5
0d
0c
fd
f9
ff
06
0c
f1
0c
ed
17
04
1d
01
f9
ec
12
10
14
0b
fd
0d
19
10
08
f2
f0
17
ed
f0
09
0b
ee
f8
10
e6
ec
2a
ff
1d
e4
03
fc
ef
ed
03
ec
f5
14
0d
ff
f7
f3
07
eb
fe
0c
f7
ee
ea
ef
d9
01
03
02
fc
14
12
f4
e8
09
ee
05
fd
d5
1f
ed
03
e8
e2
02
13
10
1b
08
20
0a
26
1a
f1
00
07
16
f7
05
f0
ef
f2
f4
02
ff
f1
0b
fa
03
e4
f2
f4
ed
e3
e4
f2
f5
f6
0a
f1
ee
fe
07
fd
03
f4
ec
dd
03
f3
02
08
03
ec
f5
f5
f8
f9
00
e8
05
ff
00
fa
f2
16
0b
fb
01
f9
0e
0a
e5
14
ed
f6
df
0a
1c
18
f9
db
fd
11
11
f3
ed
f4
ef
fa
fa
d3
0b
0b
f6
e7
01
06
1a
e7
ff
0d
fd
1a
f4
f8
0d
10
17
eb
15
db
09
f0
02
e6
0a
fa
fa
0d
f8
2c
d9
e4
fe
1a
25
24
f1
10
f1
18
ea
00
01
03
e3
ed
2d
fc
ec
f9
0c
d9
fa
09
e4
fb
2c
05
eb
d8
f2
17
13
f1
2b
da
12
ff
e8
fd
07
ea
ea
f8
f5
0b
f0
f4
06
d8
04
f6
ec
e5
31
04
30
04
f0
02
01
f7
1a
e1
f8
dd
e8
00
14
1b
f3
04
eb
0e
f3
0b
1e
e8
00
0f
f7
ea
dc
fe
e3
3b
17
05
f3
21
f9
05
02
04
22
de
26
16
ea
0c
05
f7
01
ff
da
02
f8
02
09
e8
eb
08
f3
0f
f9
12
05
f4
f4
f7
03
f9
02
e9
0c
00
f5
16
00
08
f7
03
09
07
f2
ff
14
ec
01
15
f3
1e
f2
0d
15
11
05
10
07
09
f8
04
f3
08
f3
20
fa
08
08
e8
0b
15
27
ed
06
f5
e9
1f
fc
22
03
ff
fc
07
10
0f
f1
ed
f8
f9
02
ea
05
f7
2b
01
e6
f9
eb
ed
f6
fd
08
07
f7
04
14
ff
eb
f8
e0
fb
f9
00
0d
dd
03
ec
fa
fe
00
19
fa
f1
ff
f4
e8
f9
0c
0a
26
05
f5
fe
fa
df
e3
fe
14
fb
f5
0a
d9
0e
e3
e9
18
13
fc
06
05
fb
d7
e9
f7
22
17
0f
04
14
ee
07
0a
0a
04
d8
02
ff
e7
0b
0a
f1
f7
0b
dd
16
e7
dd
0e
1a
ff
f7
00
ff
d9
ee
fe
13
fd
0c
fc
19
f3
f9
fc
0c
fb
f7
fa
01
eb
28
07
01
00
f2
f8
f7
f9
11
01
fd
f2
0d
07
10
fe
08
22
15
e1
12
e7
f3
0d
f7
18
fa
01
09
08
f8
06
11
c4
e8
df
07
ef
04
11
fd
ec
05
f3
21
07
04
f8
01
f4
07
4f
10
f4
f1
18
07
08
df
fc
21
05
22
f8
28
f3
f7
00
08
17
fd
f4
e2
fa
db
fc
15
29
0a
11
ef
fb
08
f7
e5
1e
fe
fe
23
f9
f4
ea
f0
f3
f5
2b
f2
fa
ed
0b
f6
ff
fc
f8
08
20
0c
ee
0a
f9
0c
ef
f9
20
15
fe
16
10
fd
f9
0e
fc
16
10
13
fb
18
ef
ec
d4
e4
15
01
08
07
1e
ef
f7
d1
ff
01
cc
1d
f7
fd
00
01
08
0c
0d
13
dc
f5
0b
e1
fc
11
05
18
03
05
21
02
fd
f9
19
ec
07
21
1b
01
ed
05
17
fa
15
17
ee
f9
35
f5
0a
f6
fc
ec
fa
14
21
1d
1c
1d
1d
f9
e7
f2
12
f9
29
f1
0a
14
f2
04
00
f9
12
14
2e
0a
01
da
f8
e7
04
e4
09
eb
ec
0f
fa
32
e2
e3
