1c
05
18
ec
ec
02
39
04
fd
c7
fd
00
4c
e6
de
d6
09
0d
15
15
e1
ca
f0
ea
da
dc
f6
0e
e3
0c
01
ef
f2
f6
e5
0f
ff
0f
c5
18
f7
0a
fa
ec
06
e7
e2
11
fd
29
0d
99
ff
e8
d7
b9
2d
18
e1
40
11
1f
c8
24
0a
f6
14
cc
eb
1e
0a
df
f5
03
1c
22
04
10
0a
f9
f6
02
05
ed
02
1b
22
e5
f9
f4
eb
01
e4
de
2e
ef
08
19
14
13
eb
cb
e2
fe
de
e9
f2
33
d8
25
01
e9
03
22
0a
fa
02
15
f5
17
fc
1f
01
1f
ff
0b
f1
ee
c7
f3
40
00
f7
fb
e9
fb
08
49
24
00
a6
f3
28
24
05
2f
fc
1d
e3
fc
08
f3
e8
fc
03
0f
f6
13
fd
0e
0d
eb
fc
bb
04
f9
f3
19
d4
15
2a
f9
0d
23
06
ff
f1
fe
f1
2f
fa
e7
d2
27
07
29
11
f1
ed
27
ce
13
16
10
ef
ff
12
1e
01
10
18
fe
fb
0d
04
01
14
21
16
e1
ff
ee
cf
1e
0a
21
08
d9
fe
e7
ed
32
0f
1c
d9
ef
14
30
24
1b
00
ce
e1
fc
07
1c
21
00
ed
14
05
13
1d
1a
c4
ee
01
dc
e7
15
14
ca
f7
13
ba
d2
2a
0c
22
20
21
16
11
fb
17
fc
f3
e5
e3
fa
10
11
00
f8
22
da
ed
0f
05
fb
07
fa
a4
fb
05
31
ed
31
df
04
ec
11
e1
f9
c7
2a
f6
13
f3
0b
1b
f0
f4
f8
ef
09
de
2a
18
d0
d6
3c
fc
00
fd
f5
06
13
cb
27
04
1d
1e
2d
fd
04
17
14
fb
1d
84
02
02
ed
f2
06
13
fb
0a
c4
18
ee
c5
e3
07
e5
09
eb
13
05
04
19
0d
06
01
13
f2
eb
fd
f4
fc
e8
fe
0e
17
17
2a
ed
25
0c
0e
09
10
ff
00
09
eb
00
f7
23
01
35
11
de
fb
01
11
12
02
cf
00
f5
0f
03
14
f3
e4
1b
f1
0f
f7
b0
24
f9
26
eb
f6
28
2d
fa
e7
3c
e8
0a
ee
ce
04
10
22
08
ee
00
20
1f
13
de
0d
13
32
ec
e6
fe
c9
0c
f1
24
e6
05
31
08
1e
1b
ed
09
e9
f4
ff
f1
33
13
ed
e8
fc
c4
05
0e
07
47
00
0e
f9
c2
f8
e5
02
0d
1e
22
04
18
06
fd
0c
2e
02
ee
e7
12
17
03
e7
e8
b7
f2
08
48
0f
00
03
2a
fb
fc
bc
07
b1
f0
23
f3
f4
d7
d4
fc
0a
30
0b
fd
f4
e3
e6
13
14
04
f7
1f
e3
ff
f7
2f
22
f1
08
1a
12
ce
1c
f1
fd
1d
19
08
32
08
17
d1
f0
00
f3
d4
f8
1d
0b
01
28
09
05
2b
26
ea
02
1d
24
4f
e3
bc
14
44
03
ca
bf
1b
ff
43
f4
17
d4
f0
08
de
c9
f2
10
02
f7
1c
fd
23
26
19
0c
f4
32
d6
0b
df
ed
4c
e1
22
13
d8
e6
f8
3f
f1
e6
e9
bd
f2
02
2b
28
f3
02
e8
dc
fd
0e
11
e1
0a
0f
06
df
e2
06
f1
0b
f0
07
f8
23
dc
09
13
09
f6
fb
ef
1c
25
bf
27
00
1d
f2
ed
2d
e4
01
fc
06
f5
0b
24
ef
f0
e4
f8
29
55
11
e3
37
54
0f
dc
b8
4b
11
cb
21
f7
f6
1e
17
ed
e0
e2
fc
2a
0a
c3
0d
f5
0b
f7
ff
30
ff
f8
f2
0a
e1
f5
08
dc
2a
ee
e8
3a
e7
06
ee
36
2f
02
08
23
07
f1
0b
0c
f3
06
ee
35
e3
09
ce
08
11
eb
dd
07
0c
fc
02
0c
ff
17
04
00
bf
d7
30
36
27
1f
14
dc
ef
2d
2e
e2
24
21
14
eb
fa
03
1c
cb
44
fc
15
f4
15
e9
ec
2d
ff
1b
dd
f4
12
2c
28
13
ff
cb
df
03
09
1e
21
f9
ef
0d
11
ff
f1
21
0b
e6
01
cc
08
21
1b
2e
0b
c3
ec
04
09
f9
d7
05
00
f8
08
ef
03
e8
e4
f9
26
12
ff
e3
ca
ee
de
c1
ef
d5
ef
e6
f9
f1
26
06
0f
ff
03
f6
ce
09
29
00
cd
d1
2c
0c
f2
f2
1c
fa
28
c3
1f
20
0f
f2
f4
fe
21
c5
6a
ef
0f
ec
1d
ef
e2
33
f4
19
d2
fd
1a
1f
34
18
f4
cb
de
02
fd
14
23
f1
fb
fe
f7
04
f9
02
e9
f3
fb
bc
37
ef
09
1d
00
dd
f0
0c
f6
ce
15
05
06
ec
eb
16
0a
f2
eb
33
e8
0c
f4
d1
ed
e7
08
df
1a
2e
1a
fb
0c
07
06
de
bc
ce
9e
f8
ee
e0
1b
ec
00
05
35
32
c7
2c
81
e2
0d
2f
01
1b
f6
22
fb
14
d7
ca
f7
f2
d6
ea
03
21
e8
1b
fb
fc
0d
01
1e
ea
ee
fe
29
e5
03
f4
13
0b
1f
ff
1d
e8
dc
08
cc
26
05
bd
e1
3f
00
fa
fb
00
0e
07
d3
1d
12
10
0f
de
02
2b
2f
d2
f6
e4
f9
36
ef
ff
3a
f0
f6
f8
ea
c0
f8
e2
df
f8
f4
e4
13
07
1c
ff
e3
f8
e9
ff
06
1c
1d
e1
23
ea
f5
04
11
0d
14
14
e3
09
ed
13
32
0f
d4
c6
1b
12
f7
f2
1a
1a
4c
f7
49
14
fa
c4
0d
0b
02
f3
e9
10
12
e8
ef
31
e7
07
f2
da
19
09
fd
d2
e2
fa
fe
36
14
fc
f5
e2
ea
1e
0b
fa
c5
03
fb
2e
29
e9
21
e5
f9
07
0c
11
13
15
e2
09
1b
ef
18
fc
15
eb
dd
06
fb
ed
f6
11
f4
17
fa
e8
e9
e6
f5
f9
07
25
1c
16
27
17
04
fe
0b
f9
f3
fd
05
fb
02
04
13
22
e1
1c
05
c1
31
cc
00
1d
1f
ee
f0
09
0c
fc
e3
3d
a7
19
f4
19
e7
0e
21
c4
13
eb
07
f8
00
f9
f5
02
d6
ed
1f
1e
20
fb
18
23
f7
04
3c
e7
f4
f0
dc
f9
08
11
04
14
fe
f5
ed
e8
13
03
ef
09
f3
fe
17
f9
e5
19
f7
ff
ef
dc
f5
e3
f5
01
e4
ed
f2
00
09
f5
f6
12
07
03
e9
c9
05
c9
e9
0c
14
00
02
10
ec
f6
00
ff
09
f0
06
f6
35
1a
ce
ee
fc
e4
0f
cc
eb
0e
f5
ec
ee
00
dd
12
19
32
e5
37
f2
ff
ff
fb
f8
e6
e7
fa
1a
fc
1d
f9
40
12
df
f8
fc
f3
f9
0a
03
e2
50
f4
07
f2
17
0a
e7
2c
f4
14
de
05
ca
e9
26
00
e7
01
db
ed
e3
1a
95
d0
1e
34
1e
e7
f3
2f
2e
ef
0c
e3
d4
2c
33
15
17
c3
fa
f2
09
d0
04
e8
24
05
01
0c
20
fa
f7
f5
0d
ef
fc
02
14
e3
0c
09
d3
e8
06
d1
f3
e8
ee
c5
18
fd
bf
b3
08
f4
33
c9
e3
44
44
c0
ed
13
0f
1c
e5
f5
45
d1
0b
f8
00
04
2f
aa
75
e7
19
e6
23
f2
de
41
fe
22
16
ef
f7
25
18
ef
16
dc
e7
26
11
21
08
d3
f3
03
19
e4
a3
1e
f2
f7
f3
c3
05
f9
ca
ef
38
45
16
c0
ef
f5
f2
0e
28
05
01
15
d4
fa
51
e7
0c
f5
18
d2
fc
08
05
1c
02
d8
04
06
06
ff
19
f9
f0
20
d5
0e
fd
e2
e3
cb
02
f3
e7
fe
eb
df
0c
0a
25
f3
fb
07
c0
f8
d6
fa
0d
0b
16
29
23
32
0e
3f
05
03
62
3a
08
2a
e6
e3
19
1a
27
e5
08
15
1f
ab
2d
e9
0c
3b
1e
0d
19
64
0e
16
2f
23
13
0b
e4
ea
e4
e5
15
eb
38
1c
ea
cd
01
cc
0a
22
08
44
f3
08
f3
df
fa
e4
e8
fe
e6
07
06
fb
e4
05
f9
1d
f4
f3
db
fd
f9
04
