12
fe
fb
06
c5
1d
fb
0e
19
01
1a
08
06
19
02
f6
e1
ec
21
16
08
0d
f0
e3
11
dd
fe
fb
06
0b
01
20
21
fd
08
03
f4
f6
fb
05
0c
0e
04
1f
01
03
03
fb
ec
ca
f4
fb
3f
00
e9
dc
fb
e2
07
15
03
2a
0c
08
34
0e
05
df
f5
01
e1
f4
f9
f7
f6
fa
fc
fe
f8
f6
f9
f8
f6
fd
f7
4f
fc
fb
03
f9
ff
fe
00
ff
d8
e3
ff
35
08
f6
ec
f9
e8
4d
f2
fd
e7
f2
eb
f8
07
f5
39
fc
03
00
e3
06
0d
04
2c
04
dc
06
ef
ee
0b
17
0d
10
ae
03
0a
07
10
06
fd
36
fd
e6
08
32
03
ff
f7
ec
f6
ed
40
fe
f6
01
ef
f8
fb
0c
cd
f9
3c
ee
02
0f
17
15
04
0c
d8
fe
07
fb
fe
f1
cf
f7
00
fb
00
0b
36
0a
00
05
fb
55
b2
fb
0b
fc
f6
f8
e5
f2
e6
49
f3
ee
ed
f7
f3
e7
f4
e6
72
f0
fa
ef
ef
f3
e9
f9
ec
43
e7
f8
f5
e6
f5
de
f7
fe
f4
fe
13
2c
08
fa
fa
fd
44
c3
fe
0a
e9
04
fd
06
f6
03
29
0a
f8
0b
f6
25
1a
08
0d
d9
f7
01
ec
fa
f7
0f
0a
07
30
de
0f
e8
f4
fd
07
04
d2
30
d7
f6
01
f0
ff
f8
f9
fa
fb
f7
fd
f4
fa
08
11
fd
0b
23
de
03
f6
eb
05
17
0b
14
ab
0e
0e
06
0d
02
0b
02
20
bc
15
07
fc
08
fa
20
f7
0e
fd
0f
f9
1d
fb
01
03
01
f0
f0
f4
06
47
eb
00
18
11
e3
e3
2e
05
de
02
f9
ec
f8
ee
46
f1
f9
ed
fa
10
f0
fb
28
e2
ef
0c
fe
f8
fa
04
14
ea
f5
41
f4
e3
06
12
f2
0b
f2
da
e1
0a
ed
0d
14
1c
13
13
81
13
12
11
13
08
f9
fe
4e
c4
ed
09
ef
06
e8
f1
ed
08
26
0e
fe
fc
fa
f8
ff
ee
0c
25
c8
0e
f3
05
14
03
fc
34
ef
d8
0a
ec
f8
07
f6
fd
e3
3b
eb
f4
fc
00
03
22
08
e0
08
19
f9
e1
fc
03
fc
04
f9
be
f7
02
41
06
f9
e3
ff
0f
df
ed
16
2b
ff
f9
ef
02
0c
df
f0
0b
2c
05
01
11
11
0d
13
c2
f1
e8
19
ed
fc
14
d0
fb
39
ee
fb
17
f7
fc
f8
01
39
06
f9
05
f9
03
f5
ff
00
bf
41
0d
f1
fb
08
ea
02
f4
bd
39
f6
08
28
f0
ea
ee
f3
57
f2
ef
f9
f1
04
ef
e9
ea
4a
f1
f1
e8
03
ff
f2
04
e3
35
e3
fb
f9
f6
f5
d4
ea
10
21
02
fd
12
08
05
fd
fe
fa
b5
4c
01
fa
02
f9
f8
f4
f8
51
f8
f5
fa
f2
f3
dd
f6
08
e7
ee
13
37
0e
fd
00
0a
f1
d0
38
01
f1
0d
f9
01
fb
fe
f5
f7
00
f8
fa
04
fb
01
fa
d9
f6
fe
f7
ff
0f
38
0f
fb
e1
ea
fc
e8
fe
eb
ea
09
25
d8
12
20
e1
fc
f8
e6
f5
eb
5f
f6
f2
fc
f1
01
dc
01
e2
78
f0
fb
e8
fc
fb
fa
0d
fd
c2
3b
fb
f2
13
02
00
01
ff
2c
04
00
03
03
fb
fd
fd
f7
fa
f2
fc
f4
fa
fd
f6
fc
f3
00
f6
f7
fe
f8
01
f1
01
f6
fe
ee
fa
f4
f7
f6
fb
f6
00
d2
ef
0b
44
0f
fd
35
1c
f9
d5
e4
02
f6
ff
09
fd
f6
3e
f9
cb
0f
fd
f8
07
d0
fc
f7
16
06
fd
f5
f8
fa
ef
fb
fa
29
fb
fb
fc
f9
f7
eb
f8
e4
ee
1c
ff
1b
17
09
ef
09
ec
e0
ea
01
fd
05
03
0d
f4
16
1e
f3
02
05
ef
ee
f2
f3
ef
35
f6
f3
f2
ed
04
02
fc
01
30
0b
fd
0b
07
04
ef
00
f3
ff
f3
00
f2
f7
ec
1c
03
1c
1f
17
02
12
f8
04
25
0b
ed
d6
e1
ff
22
01
03
f8
04
1e
07
ea
ed
07
33
f7
fa
0d
ca
fe
3a
ee
0a
09
01
1a
04
fa
1f
15
e5
f4
fc
f7
05
f6
0d
1f
09
f7
04
f3
10
24
0d
f9
09
03
f8
d4
ee
fd
ec
f8
e8
3a
f2
f8
f7
f5
fd
fc
f8
fa
e3
ed
f2
ef
06
ff
d9
fb
03
3c
02
f8
da
fa
ff
0e
02
f3
d1
e9
03
25
06
e2
f7
0f
fc
39
0b
12
02
db
f6
03
06
cf
fa
39
eb
ff
17
0a
42
0d
fa
f4
fa
fa
cd
f9
ff
0a
fd
eb
29
ea
fa
0d
fc
05
04
ef
ff
f2
3b
fd
e8
0a
04
f1
0c
fa
ed
f7
fe
ec
03
00
e5
fc
e4
db
1a
03
2c
15
fc
02
fb
03
27
05
fe
03
ff
ff
0f
f3
0b
23
12
f7
10
04
fc
e7
fc
eb
2e
ee
f7
ef
f6
0b
fd
f7
3b
fe
c8
11
fb
f0
f3
fe
f2
f2
20
ec
fd
f2
f1
02
fd
05
fe
bd
1b
04
1d
12
09
e1
16
05
16
16
01
16
12
06
fe
fc
37
fa
d2
0c
fa
f9
07
0e
f3
23
17
d7
10
f4
ec
ff
fb
ff
01
c5
fa
ff
f9
fe
07
d1
08
14
e1
1f
01
f1
f5
f5
de
fb
e8
4c
f7
f9
07
00
f5
e2
f2
ec
6a
fc
f0
eb
f2
fa
21
09
e1
06
1b
00
dd
fe
03
de
f9
f4
52
f7
fa
e4
fe
01
e5
fd
14
ea
dc
16
28
05
09
05
f4
df
2e
fd
fb
e1
15
f1
03
22
06
c2
0c
2c
07
f1
ff
18
00
0e
21
01
f7
f8
e6
00
f6
fe
f3
11
e5
fc
2b
f1
e8
04
f5
02
3b
08
f5
08
ee
0d
f8
f4
2c
fc
d8
10
07
f2
fd
18
11
0e
e4
0d
0c
0e
0c
f5
ff
0a
fe
30
de
0e
e9
f3
06
26
0a
e3
00
1b
f5
db
fb
06
fc
0c
19
d3
18
0b
fa
04
fe
fa
01
ee
d2
43
f8
f9
0e
04
ed
ff
29
dc
fa
17
0c
f6
08
33
0b
f2
d0
f6
fe
10
fa
02
e9
0e
03
cd
3a
fa
fb
06
fc
10
08
f1
d2
d8
04
1a
fa
03
18
02
01
c7
ff
03
1a
03
07
f8
07
fa
d4
f5
04
f3
06
fa
ee
02
08
18
26
00
f9
f6
02
1d
09
ef
cf
f9
10
0f
ff
f7
de
03
1f
f1
e4
12
17
f1
f2
fc
27
f3
fa
01
13
22
d4
f7
eb
f4
f2
02
0e
f6
1b
1c
0a
fa
06
f3
e4
f4
05
f5
04
0a
d9
07
06
eb
02
0c
d4
0c
fa
d5
f3
fc
f6
04
05
39
0a
f6
01
03
fe
36
09
03
09
f6
f2
fd
0c
fc
2a
15
ef
0b
01
01
f9
01
f3
cd
f3
09
3a
08
08
00
fa
33
00
d3
0f
f4
ff
04
3c
fe
fd
f7
00
fe
cc
01
01
ff
03
e8
d3
43
f9
fd
08
f5
ea
ef
e6
5f
ec
f0
ef
f0
09
36
10
f7
f5
f6
fa
de
f6
02
0c
07
f6
d1
f2
10
21
07
f2
fe
f1
03
21
03
ed
07
d2
ff
00
00
ff
c1
00
01
fe
00
0a
2a
09
17
d4
f8
ff
f5
f3
fc
e3
fc
e3
33
e8
fb
e8
f7
f0
02
0e
c1
08
39
e7
03
15
08
02
f3
36
03
c5
0c
04
f0
0c
ed
ff
e4
44
d9
f5
fb
ff
02
f0
05
1e
c3
11
05
f9
01
fa
e4
f3
eb
45
ef
f4
ee
fb
f7
f5
f9
f1
5a
f7
f7
f8
f2
fe
ce
f7
07
f5
fd
fc
41
09
ff
fe
00
03
2e
04
00
03
01
0c
fb
ee
1b
00
f0
12
fc
ec
05
0b
fd
09
46
17
08
0c
00
0a
f1
0c
0e
d7
11
0c
f1
08
ff
dc
f9
f8
3f
fd
fc
ed
fa
da
f7
05
fe
18
02
fa
09
d6
0a
32
07
fa
e6
f6
fc
e8
fe
f5
e9
f9
ef
4e
fd
fd
fa
fb
03
ef
ff
de
4b
e6
fd
ee
06
f8
fe
05
fc
ee
ef
0c
ed
f9
fc
e7
f8
27
15
df
f5
19
09
fe
e4
ff
e2
55
e5
f8
e0
fa
01
06
04
01
20
03
05
02
05
03
08
dd
0b
1f
07
ec
10
05
f8
dc
f9
fc
33
04
01
f9
fb
0e
11
09
09
d4
07
09
f4
07
00
e0
fa
f8
ee
03
02
28
14
fc
0d
f4
ed
31
ea
fb
11
f3
fc
00
13
ff
ce
32
08
e9
03
fa
df
f6
fb
16
29
02
11
df
f3
ec
f5
f1
44
f7
ef
f8
ee
09
f1
0d
ee
c9
f8
0d
f5
fd
fd
f4
00
fc
ca
f7
07
40
0d
fb
07
f9
f2
ce
f0
09
38
1b
f9
e6
fa
ea
3d
e9
f9
ee
f4
0b
f9
03
f9
13
ef
fc
d0
f5
ec
08
05
dc
0a
27
f9
fa
09
