e1
c7
de
c5
9e
b3
d7
ae
c7
f9
44
e8
b2
3e
1b
bb
f0
33
ea
d3
dd
d6
c9
d1
e0
cf
df
02
e3
e8
de
ae
cf
e4
c0
de
f1
d9
ea
df
c3
d6
e8
d8
e0
26
39
32
04
23
2c
be
a8
c6
e6
cd
e2
d4
a8
c1
e3
c3
d7
15
33
24
34
76
48
21
43
26
ec
d6
dd
da
ad
c3
ea
c3
d6
04
dd
ce
e8
c9
d0
dc
d3
f5
17
2c
1c
13
40
3c
05
20
29
1f
40
1c
37
64
45
22
37
2e
f0
ab
ee
b6
b4
05
c5
09
23
e6
e5
f8
0a
27
24
23
54
3e
d4
d4
ed
d2
ba
cc
f1
cd
cc
15
30
2c
29
6a
4f
14
3d
34
14
35
25
2c
67
43
20
47
27
14
2a
1c
38
71
4c
2e
5b
3b
ec
dc
e3
d3
c7
d5
e5
d5
e0
13
31
1c
2f
5e
32
25
3e
21
ed
e0
ec
d1
b9
cd
e1
cd
dc
f2
e4
ec
e2
be
d5
ec
cf
e6
ea
d8
df
d5
a9
c2
e6
c9
e0
02
34
36
24
66
4e
26
40
24
1b
2c
1c
30
67
42
24
4a
2d
24
13
b5
31
26
a8
27
18
b1
cf
f3
49
fd
ae
62
29
ac
0c
e8
d9
ee
d4
b0
d4
e6
d5
ec
0b
24
1f
23
4f
40
19
41
36
14
25
1b
2a
53
40
20
3c
2c
f5
d8
e4
e4
b2
cb
e8
cf
e9
f2
d2
d5
d4
b1
c2
d4
c5
e2
c7
ef
2d
b3
f5
4f
cd
06
41
16
28
1b
29
4b
34
18
2e
1c
0a
23
22
25
65
3b
19
43
2c
0c
2a
22
23
59
47
1e
3f
2f
18
2d
21
2e
61
43
1d
46
35
eb
d5
df
cd
9b
b9
e1
c1
d5
f2
d9
e1
dc
a7
bc
eb
c7
ce
00
2b
2a
27
5f
42
27
42
1f
f2
dc
d7
d6
bc
cc
d6
cb
e8
ef
e1
ee
da
b5
d3
ed
d8
e5
0b
21
18
20
59
41
17
3d
2e
dd
db
00
b9
a6
e7
cf
bd
eb
14
26
1a
30
61
41
21
43
30
ec
d2
e2
d7
b4
cb
e1
cb
de
f2
da
e8
d6
91
af
e4
b0
be
ee
d0
db
ce
a2
be
df
c5
dc
2a
38
36
0d
1a
2e
c2
a2
ce
22
3c
24
3b
74
43
17
37
22
0a
22
23
1c
54
50
14
3f
3c
f1
e4
f1
ca
b3
ca
e0
c7
d9
ec
d8
e6
d0
bd
d2
e0
d1
e1
1a
31
1e
2f
64
45
1e
40
2b
24
37
25
30
6c
51
1a
47
3f
2a
22
c3
46
26
99
39
14
ba
16
2f
20
30
6f
4b
16
44
34
e3
c8
dc
c9
8e
bb
e1
bb
de
20
3c
2c
33
75
50
16
3c
2b
28
16
cb
3c
19
a7
3a
09
bd
e8
cc
e2
ea
bf
cb
f9
d3
c6
19
34
24
3e
7b
48
23
4b
25
08
fd
fc
2d
73
57
c8
96
c5
2c
68
43
d6
a2
ca
fa
fb
fc
fe
26
4a
05
5a
77
f3
22
31
f1
d7
e1
d5
b8
c8
de
c8
d7
12
27
22
25
5a
3e
1a
43
2b
fe
ef
eb
d7
bc
bc
da
bc
d1
0c
2a
1d
2e
52
37
22
36
25
18
28
20
2f
63
49
21
49
29
fe
eb
f4
f1
b5
c5
fa
c7
d0
0f
36
34
25
7c
6b
15
41
36
19
37
2b
2c
65
4c
15
3a
29
0c
29
21
31
66
48
25
4d
34
1d
3a
2c
37
51
3a
2d
40
2b
12
25
12
2a
56
37
22
42
2e
f6
d0
df
e2
b2
bf
ed
c5
cf
e9
d7
e1
d1
c0
ce
e1
c6
d9
04
09
07
07
14
0f
07
0e
0f
1e
32
25
dc
e6
0f
c1
95
c7
ef
d8
e3
d4
ab
c7
de
c6
dd
36
1d
cb
65
e5
dd
27
a2
f4
33
3c
22
cd
01
4c
db
b5
bb
1f
28
14
35
50
32
20
3a
26
e0
ce
e6
cb
a2
bd
e2
c7
d3
16
16
fb
29
3d
27
0f
39
40
13
2e
27
29
66
52
1b
46
38
08
1e
19
1e
4d
37
20
46
31
16
31
1f
2c
56
38
1f
3a
21
12
28
1a
21
4f
3d
17
35
2c
0f
2c
24
25
52
34
1b
30
18
f3
e0
e6
d8
c2
d2
ea
d4
e1
f4
d9
ec
db
ab
c2
e9
c1
c9
1e
42
1e
3a
68
42
23
34
2c
16
2d
1e
2c
5c
47
1e
44
35
f8
cf
25
f0
9b
5c
ec
c5
57
ed
e2
e5
e1
d0
d8
e4
da
e5
d0
dc
16
d3
fd
31
13
31
36
d6
bc
cb
f0
f7
0f
23
52
53
e7
d6
ea
d4
ad
c9
ea
cd
d8
e0
c4
cd
df
d6
ef
2e
50
4a
29
cf
f3
16
a1
3e
d5
d2
58
eb
d6
e0
d8
c3
cd
e3
cc
dc
12
2d
1e
27
61
44
15
3e
2f
17
35
2a
2d
5c
4d
1f
43
38
1a
32
22
24
49
38
07
1a
17
e2
c7
b8
c9
f6
25
39
46
23
d8
ee
40
e2
bf
0c
2c
ea
ad
d0
bf
e4
c0
d6
12
07
3b
3d
16
2e
27
2a
64
52
1e
44
35
39
29
ce
51
13
a9
2b
eb
c1
ea
d3
e7
d3
ae
c7
e5
c6
db
12
2b
25
20
51
3f
16
39
2b
ec
d1
df
d3
b7
c8
e5
cd
da
e1
0d
26
bc
1f
49
c6
0d
3e
37
f0
ec
64
b9
e7
2b
c0
00
13
2b
23
33
76
51
21
51
3a
ec
d6
d7
d3
af
c1
db
c7
e1
25
04
c0
51
17
91
47
2a
c8
e8
d8
e4
cf
9b
c9
df
c3
e1
2e
04
b5
4d
1e
8b
35
21
b7
de
c2
de
c6
b1
bc
df
c1
c6
f7
ce
dc
bc
d9
23
0e
4b
57
13
26
19
28
56
3f
16
3d
2b
e5
c7
df
d6
a3
c4
e6
c7
db
08
2c
2a
29
6d
4c
21
4a
31
eb
d5
e6
db
cd
d8
ea
dd
e4
17
57
46
d9
0c
3e
ae
93
e8
0d
27
20
28
54
3c
20
3f
24
dd
ce
ee
d5
b2
cb
f2
cc
cb
13
30
23
38
72
49
2d
52
36
ca
b1
ce
ff
f4
f3
3f
64
40
1c
2e
12
32
5f
2f
22
44
27
da
bc
cd
d8
dd
11
19
42
4c
ee
d3
e6
e3
c8
cb
ee
cb
d4
e1
f6
2a
c8
e3
53
d2
e8
39
f1
df
e1
d3
af
c4
db
c3
e0
26
4d
39
22
55
3b
f5
fb
fd
01
27
21
22
7f
5f
21
64
52
24
36
1b
39
58
38
1c
35
1d
1d
2d
34
0d
22
2e
c8
a8
d6
0a
27
18
2d
5e
40
22
42
31
22
34
22
29
69
49
05
36
41
1d
38
24
31
6d
4a
1c
41
2c
