ec
de
ee
d8
d8
e4
f8
e7
f8
e1
f0
00
d2
ee
ff
d9
dd
f4
e4
f5
0e
2a
5a
28
fb
df
ab
1e
35
f7
30
7a
03
09
22
eb
ef
c7
df
e9
e6
fd
20
62
27
08
3f
37
ee
ea
12
e8
d2
e3
ff
f0
ea
0b
d1
c7
0c
d4
c7
e0
0d
e3
e2
22
dd
da
18
e4
10
1e
16
1c
49
38
0f
29
22
e8
32
f0
f8
1c
f0
20
b1
1f
06
05
03
16
1f
14
13
24
12
f5
d8
d2
fa
c9
cc
02
fd
f6
e9
19
fb
31
b4
1a
e6
35
e8
e7
fd
13
c5
4e
09
0e
36
e4
f5
e9
ef
18
5b
15
f6
bf
fe
ef
e9
fa
d5
ce
e9
e9
d2
ea
db
db
f4
f9
13
24
05
19
31
19
32
12
22
20
03
0f
19
0c
fe
ed
03
03
ab
ef
03
dc
0d
fc
ec
f1
ed
bd
d0
04
d1
e3
1f
24
03
2f
5e
05
1e
1f
f5
ec
fb
21
ea
d0
4c
fc
d3
27
16
c8
1f
c4
62
df
24
db
07
f8
0c
fc
12
9e
4e
f6
55
b9
f1
e6
1d
0f
d8
b3
0e
43
11
06
1b
0d
18
4f
25
23
3f
1d
02
f1
fa
29
4c
2a
f9
f1
fe
0b
1b
1d
0a
1e
26
fd
12
16
16
28
11
19
56
20
f2
07
e1
ef
2b
ef
28
df
f6
1d
a9
35
ef
d5
e5
d8
cd
d9
ee
df
f7
1b
f3
f3
f5
58
e5
c4
11
27
f5
1b
f4
e0
59
ee
f5
30
f4
fc
ce
cf
f3
c8
dd
00
f9
fd
db
c7
e8
d6
b8
e4
ec
e7
eb
f9
15
f4
e7
56
d5
ea
4a
d4
e7
db
ee
ea
dd
fc
dc
da
ef
e2
e2
10
bf
ce
f5
d0
cd
ff
ec
29
ed
2a
a2
2d
ee
25
ec
05
22
09
07
35
23
11
42
35
f5
e8
ff
d2
cd
eb
e1
cb
f3
25
1e
0c
1b
38
07
14
25
f3
f8
cc
da
2a
06
ba
f7
4f
18
f8
e2
26
f7
d1
51
03
d7
32
24
e7
f9
54
d4
f4
28
e8
f3
15
29
0c
25
4c
47
12
29
2e
f7
e8
0b
d8
b4
0c
e9
c5
f7
05
d3
1f
3b
ef
cc
c8
54
f8
0f
d1
fe
bf
d6
39
14
55
f0
04
fb
fc
24
c2
17
24
ba
1f
0f
11
07
10
1d
14
09
11
0d
f1
dc
d9
dc
c7
d3
e5
de
f6
f9
f6
ea
ed
ee
a9
f8
f4
ee
18
26
05
e0
38
2d
f4
01
19
ee
f2
07
d7
dd
0c
e8
e8
04
0d
3e
05
ef
90
ef
07
32
0b
05
1f
20
2a
4c
39
20
44
15
ea
c7
eb
d5
8e
e3
f4
ea
00
fb
d7
26
05
b3
4f
ff
e6
25
0c
26
09
0c
ef
e6
ee
cb
b9
04
10
16
0b
44
3a
0a
22
2d
11
1b
14
17
4a
33
10
23
20
bc
4d
f3
5e
81
1f
ea
27
f2
00
f6
d9
0d
f2
c1
14
e6
e3
e9
e0
f2
d7
cf
e4
eb
e2
f8
e6
fd
06
64
2d
01
b2
d3
fa
df
b8
00
0f
52
09
05
f5
fa
fa
ed
f6
ef
e2
e1
eb
e5
de
0d
14
e4
1c
19
ba
06
1e
ce
1b
ea
f2
3f
d0
e7
25
f1
f6
18
2a
18
26
26
08
0a
0d
00
f8
ed
fc
e2
bf
f1
e9
d6
ef
08
03
0a
28
42
2a
d1
a8
d9
ee
f0
01
cf
d2
fb
f6
e0
08
1f
d8
e7
c0
e1
2f
10
3c
0f
0b
f2
f1
f2
c5
e3
e1
d4
09
e5
c7
e5
fc
cb
e7
1d
26
15
ef
ef
eb
fa
f3
de
eb
e3
e3
22
34
21
d2
90
d5
0f
2c
10
17
02
e2
47
fa
c7
30
fe
e1
f5
e3
f1
d7
d1
db
ea
dd
ec
21
22
06
21
27
0a
18
22
ed
df
05
07
c0
f7
14
c5
fa
12
16
1d
16
25
50
38
18
32
24
f7
e5
ed
ec
bf
e4
f3
de
e9
0c
1c
08
18
4c
2c
1a
36
24
d5
12
12
fb
5a
da
34
dd
d6
0a
26
19
1f
56
38
11
39
22
f9
f3
fd
eb
e7
ef
ec
e9
e5
10
fb
bc
03
57
05
d1
f8
1b
09
f6
fe
d4
6f
bf
23
9f
3d
e3
de
f1
d9
c8
e0
f4
db
ea
fe
e8
e8
fa
d1
bf
fb
cb
ca
18
21
fe
2a
31
00
1b
19
fb
ec
e8
f6
bf
c9
fa
f1
f7
0c
0e
35
26
f3
ca
de
f9
f5
ff
